{
  "version": "1.0",
  "truncation": null,
  "padding": null,
  "added_tokens": [
    {
      "id": 0,
      "content": "[UNK]",
      "single_word": false,
      "lstrip": false,
      "rstrip": false,
      "normalized": false,
      "special": true
    },
    {
      "id": 1,
      "content": "[CLS]",
      "single_word": false,
      "lstrip": false,
      "rstrip": false,
      "normalized": false,
      "special": true
    },
    {
      "id": 2,
      "content": "[SEP]",
      "single_word": false,
      "lstrip": false,
      "rstrip": false,
      "normalized": false,
      "special": true
    },
    {
      "id": 3,
      "content": "[PAD]",
      "single_word": false,
      "lstrip": false,
      "rstrip": false,
      "normalized": false,
      "special": true
    }
  ],
  "normalizer": null,
  "pre_tokenizer": {
    "type": "Whitespace"
  },
  "post_processor": null,
  "decoder": null,
  "model": {
    "type": "BPE",
    "dropout": null,
    "unk_token": "[UNK]",
    "continuing_subword_prefix": null,
    "end_of_word_suffix": null,
    "fuse_unk": false,
    "byte_fallback": false,
    "vocab": {
      "[UNK]": 0,
      "[CLS]": 1,
      "[SEP]": 2,
      "[PAD]": 3,
      "!": 4,
      "\"": 5,
      "#": 6,
      "$": 7,
      "%": 8,
      "&": 9,
      "'": 10,
      "(": 11,
      ")": 12,
      "+": 13,
      ",": 14,
      "-": 15,
      ".": 16,
      "/": 17,
      "0": 18,
      "1": 19,
      "2": 20,
      "3": 21,
      "4": 22,
      "5": 23,
      "6": 24,
      "7": 25,
      "8": 26,
      "9": 27,
      ":": 28,
      ";": 29,
      "=": 30,
      "?": 31,
      "@": 32,
      "A": 33,
      "B": 34,
      "C": 35,
      "D": 36,
      "E": 37,
      "F": 38,
      "G": 39,
      "H": 40,
      "I": 41,
      "J": 42,
      "K": 43,
      "L": 44,
      "M": 45,
      "N": 46,
      "O": 47,
      "P": 48,
      "Q": 49,
      "R": 50,
      "S": 51,
      "T": 52,
      "U": 53,
      "V": 54,
      "W": 55,
      "X": 56,
      "Y": 57,
      "Z": 58,
      "[": 59,
      "]": 60,
      "a": 61,
      "b": 62,
      "c": 63,
      "d": 64,
      "e": 65,
      "f": 66,
      "g": 67,
      "h": 68,
      "i": 69,
      "j": 70,
      "k": 71,
      "l": 72,
      "m": 73,
      "n": 74,
      "o": 75,
      "p": 76,
      "q": 77,
      "r": 78,
      "s": 79,
      "t": 80,
      "u": 81,
      "v": 82,
      "w": 83,
      "x": 84,
      "y": 85,
      "z": 86,
      "£": 87,
      "­": 88,
      "Ä": 89,
      "Ö": 90,
      "Ü": 91,
      "ß": 92,
      "á": 93,
      "ä": 94,
      "ç": 95,
      "é": 96,
      "ë": 97,
      "í": 98,
      "ö": 99,
      "ü": 100,
      "ğ": 101,
      "€": 102,
      "en": 103,
      "er": 104,
      "ch": 105,
      "in": 106,
      "ie": 107,
      "un": 108,
      "ei": 109,
      "st": 110,
      "an": 111,
      "ein": 112,
      "der": 113,
      "ge": 114,
      "te": 115,
      "on": 116,
      "au": 117,
      "ich": 118,
      "sch": 119,
      "de": 120,
      "die": 121,
      "den": 122,
      "al": 123,
      "as": 124,
      "ar": 125,
      "und": 126,
      "it": 127,
      "gen": 128,
      "ten": 129,
      "or": 130,
      "hr": 131,
      "zu": 132,
      "at": 133,
      "es": 134,
      "ll": 135,
      "ung": 136,
      "am": 137,
      "ter": 138,
      "das": 139,
      "ber": 140,
      "ur": 141,
      "ag": 142,
      "be": 143,
      "se": 144,
      "eine": 145,
      "ach": 146,
      "ver": 147,
      "ro": 148,
      "von": 149,
      "auf": 150,
      "ür": 151,
      "ier": 152,
      "ir": 153,
      "icht": 154,
      "ig": 155,
      "ist": 156,
      "le": 157,
      "im": 158,
      "lich": 159,
      "ben": 160,
      "is": 161,
      "eit": 162,
      "mit": 163,
      "um": 164,
      "ent": 165,
      "ne": 166,
      "isch": 167,
      "dass": 168,
      "re": 169,
      "ck": 170,
      "tz": 171,
      "om": 172,
      "des": 173,
      "aus": 174,
      "dem": 175,
      "für": 176,
      "bei": 177,
      "ste": 178,
      "and": 179,
      "el": 180,
      "ra": 181,
      "ion": 182,
      "St": 183,
      "kt": 184,
      "ft": 185,
      "wer": 186,
      "ahr": 187,
      "nicht": 188,
      "us": 189,
      "sich": 190,
      "ut": 191,
      "wei": 192,
      "sp": 193,
      "sen": 194,
      "men": 195,
      "sag": 196,
      "ol": 197,
      "il": 198,
      "wir": 199,
      "Die": 200,
      "00": 201,
      "hat": 202,
      "war": 203,
      "ff": 204,
      "ha": 205,
      "ann": 206,
      "och": 207,
      "so": 208,
      "sie": 209,
      "rei": 210,
      "vor": 211,
      "als": 212,
      "iel": 213,
      "hn": 214,
      "über": 215,
      "Ver": 216,
      "ien": 217,
      "An": 218,
      "cht": 219,
      "Pro": 220,
      "Sch": 221,
      "einen": 222,
      "än": 223,
      "hl": 224,
      "et": 225,
      "In": 226,
      "Un": 227,
      "lin": 228,
      "auch": 229,
      "einer": 230,
      "he": 231,
      "me": 232,
      "ern": 233,
      "nach": 234,
      "sagte": 235,
      "Er": 236,
      "hen": 237,
      "wie": 238,
      "ab": 239,
      "all": 240,
      "Be": 241,
      "sten": 242,
      "ischen": 243,
      "ungen": 244,
      "Jahr": 245,
      "ger": 246,
      "Ein": 247,
      "Ge": 248,
      "einem": 249,
      "Sp": 250,
      "\",": 251,
      "werden": 252,
      "ik": 253,
      "schl": 254,
      "Re": 255,
      "enn": 256,
      "ige": 257,
      "llen": 258,
      "her": 259,
      "da": 260,
      "Au": 261,
      "kl": 262,
      "Der": 263,
      "ser": 264,
      "chen": 265,
      "Gr": 266,
      "wird": 267,
      "ihr": 268,
      "gl": 269,
      "kom": 270,
      "wur": 271,
      "scha": 272,
      "ind": 273,
      "Sie": 274,
      "ün": 275,
      "zent": 276,
      "Mit": 277,
      "igen": 278,
      "je": 279,
      "ön": 280,
      "ill": 281,
      "är": 282,
      "unter": 283,
      "eil": 284,
      "aber": 285,
      "mer": 286,
      "zei": 287,
      "ot": 288,
      "ze": 289,
      "br": 290,
      "os": 291,
      "Fl": 292,
      "ing": 293,
      "iert": 294,
      "haben": 295,
      "hal": 296,
      "wo": 297,
      "gr": 298,
      "lan": 299,
      "hö": 300,
      "ad": 301,
      "nen": 302,
      "rü": 303,
      "Das": 304,
      "we": 305,
      "urch": 306,
      "ation": 307,
      "sind": 308,
      "ort": 309,
      "op": 310,
      "Prozent": 311,
      "fe": 312,
      "ner": 313,
      "sein": 314,
      "ue": 315,
      "wurde": 316,
      "ücht": 317,
      "mehr": 318,
      "iv": 319,
      "lle": 320,
      "ran": 321,
      "sei": 322,
      "schen": 323,
      "art": 324,
      "ische": 325,
      "gan": 326,
      "hin": 327,
      "ob": 328,
      "rä": 329,
      "üchtlin": 330,
      "durch": 331,
      "gel": 332,
      "fü": 333,
      "ähr": 334,
      "tet": 335,
      "Flüchtlin": 336,
      "letz": 337,
      "schaft": 338,
      "De": 339,
      "Vor": 340,
      "ieren": 341,
      "bl": 342,
      "En": 343,
      "ster": 344,
      "ander": 345,
      "noch": 346,
      "ont": 347,
      "Unter": 348,
      "20": 349,
      "bt": 350,
      "ht": 351,
      "end": 352,
      "hmen": 353,
      "ffen": 354,
      "lt": 355,
      "kön": 356,
      "ßen": 357,
      "ungs": 358,
      "uch": 359,
      "Le": 360,
      "agen": 361,
      "rau": 362,
      "rit": 363,
      "gew": 364,
      "gegen": 365,
      "bis": 366,
      "gt": 367,
      "geb": 368,
      "Aus": 369,
      "was": 370,
      "Te": 371,
      "rie": 372,
      "Es": 373,
      "Nach": 374,
      "fen": 375,
      "zen": 376,
      "Men": 377,
      "ahl": 378,
      "ul": 379,
      "ers": 380,
      "kommen": 381,
      "dar": 382,
      "ken": 383,
      "pp": 384,
      "ät": 385,
      "000": 386,
      "ke": 387,
      "kann": 388,
      "teil": 389,
      "ihre": 390,
      "Ar": 391,
      "oder": 392,
      "che": 393,
      "sel": 394,
      "ick": 395,
      "ins": 396,
      "Um": 397,
      "ic": 398,
      "nur": 399,
      "wenn": 400,
      "zwei": 401,
      "diese": 402,
      "seine": 403,
      "tel": 404,
      "lie": 405,
      "ru": 406,
      "tzt": 407,
      "Wir": 408,
      "sam": 409,
      "stell": 410,
      "stag": 411,
      "dig": 412,
      "weiter": 413,
      "schä": 414,
      "acht": 415,
      "eits": 416,
      "elt": 417,
      "ed": 418,
      "ass": 419,
      "habe": 420,
      "Spiel": 421,
      "for": 422,
      "man": 423,
      "oli": 424,
      "Menschen": 425,
      "Al": 426,
      "Tr": 427,
      "age": 428,
      "lei": 429,
      "Gren": 430,
      "zum": 431,
      "atz": 432,
      "wen": 433,
      "Eur": 434,
      "Ne": 435,
      "bes": 436,
      "gi": 437,
      "han": 438,
      "kte": 439,
      "na": 440,
      "tw": 441,
      "lichen": 442,
      "kon": 443,
      "uss": 444,
      "sagt": 445,
      "hatte": 446,
      "Deut": 447,
      "ho": 448,
      "spiel": 449,
      "soll": 450,
      "Flüchtlinge": 451,
      "ri": 452,
      "vers": 453,
      "Mar": 454,
      "ähl": 455,
      "Ber": 456,
      "Zu": 457,
      "lä": 458,
      "Ich": 459,
      "ute": 460,
      "führ": 461,
      "\".": 462,
      "fr": 463,
      "nis": 464,
      "det": 465,
      "ess": 466,
      "nehmen": 467,
      "Auf": 468,
      "wür": 469,
      "zie": 470,
      "dern": 471,
      "alt": 472,
      "roß": 473,
      "Mon": 474,
      "alle": 475,
      "bst": 476,
      "fin": 477,
      "rück": 478,
      "fer": 479,
      "mö": 480,
      "öff": 481,
      "tern": 482,
      "liche": 483,
      ".\"": 484,
      "ack": 485,
      "heit": 486,
      "sehen": 487,
      "iger": 488,
      "hör": 489,
      "Se": 490,
      "ast": 491,
      "ler": 492,
      "oll": 493,
      "zur": 494,
      "ionen": 495,
      "Poli": 496,
      "ay": 497,
      "mal": 498,
      "ohn": 499,
      "ton": 500,
      "dies": 501,
      "Zeit": 502,
      "Im": 503,
      "di": 504,
      "per": 505,
      "üs": 506,
      "gem": 507,
      "assen": 508,
      "halten": 509,
      "ate": 510,
      "aten": 511,
      "fahr": 512,
      "hm": 513,
      "keit": 514,
      "ump": 515,
      "glich": 516,
      "ihn": 517,
      "pt": 518,
      "unden": 519,
      "reich": 520,
      "201": 521,
      "Ste": 522,
      "akt": 523,
      "ia": 524,
      "äch": 525,
      "deut": 526,
      "The": 527,
      "fl": 528,
      "ied": 529,
      "gibt": 530,
      "du": 531,
      "si": 532,
      "sy": 533,
      "geben": 534,
      "arbei": 535,
      "neu": 536,
      "Dien": 537,
      "Mill": 538,
      "Ro": 539,
      "mt": 540,
      "son": 541,
      "ör": 542,
      "wieder": 543,
      "schland": 544,
      "Deutschland": 545,
      "bar": 546,
      "alen": 547,
      "ierung": 548,
      "immer": 549,
      "Kon": 550,
      "drei": 551,
      "og": 552,
      "pro": 553,
      "str": 554,
      "stü": 555,
      "klär": 556,
      "Trump": 557,
      "US": 558,
      "dann": 559,
      "fall": 560,
      "ok": 561,
      "tra": 562,
      "zeit": 563,
      "aut": 564,
      "amp": 565,
      "rage": 566,
      "Stu": 567,
      "Jahren": 568,
      "glei": 569,
      "Man": 570,
      "Pl": 571,
      "min": 572,
      "mar": 573,
      "oh": 574,
      "seit": 575,
      "inn": 576,
      "letzten": 577,
      "Polizei": 578,
      "Ges": 579,
      "gs": 580,
      "haus": 581,
      "mach": 582,
      "seiner": 583,
      "ve": 584,
      "anz": 585,
      "id": 586,
      "keine": 587,
      "ust": 588,
      "ende": 589,
      "adt": 590,
      "Ma": 591,
      "Qu": 592,
      "We": 593,
      "rat": 594,
      "sicht": 595,
      "uns": 596,
      "ale": 597,
      "ierte": 598,
      "ährend": 599,
      "Da": 600,
      "Mann": 601,
      "neue": 602,
      "Jahre": 603,
      "können": 604,
      "Dienstag": 605,
      "Bun": 606,
      "Lam": 607,
      "Me": 608,
      "fte": 609,
      "upp": 610,
      "ange": 611,
      "stellen": 612,
      "weise": 613,
      "änd": 614,
      "seinen": 615,
      "dent": 616,
      "lang": 617,
      "wegen": 618,
      "schäft": 619,
      "Aber": 620,
      "fol": 621,
      "gar": 622,
      "zw": 623,
      "att": 624,
      "iss": 625,
      "ktion": 626,
      "Bil": 627,
      "To": 628,
      "ap": 629,
      "bau": 630,
      "mei": 631,
      "sagen": 632,
      "star": 633,
      "gehen": 634,
      "tzen": 635,
      "waren": 636,
      "Euro": 637,
      "Bundes": 638,
      "Woch": 639,
      "müs": 640,
      "will": 641,
      "eines": 642,
      "del": 643,
      "oren": 644,
      "Don": 645,
      "Pr": 646,
      "So": 647,
      "zi": 648,
      "ersten": 649,
      "jetzt": 650,
      "Unternehmen": 651,
      "200": 652,
      "Aut": 653,
      "dam": 654,
      "gab": 655,
      "hei": 656,
      "seinem": 657,
      "wa": 658,
      "ßer": 659,
      "schei": 660,
      "eld": 661,
      "spr": 662,
      "hä": 663,
      "nte": 664,
      "tr": 665,
      "erz": 666,
      "dieser": 667,
      "genen": 668,
      "zurück": 669,
      "ister": 670,
      "net": 671,
      "ikan": 672,
      "Ab": 673,
      "BC": 674,
      "Ch": 675,
      "Ex": 676,
      "Frau": 677,
      "Ihr": 678,
      "aden": 679,
      "aben": 680,
      "gut": 681,
      "viel": 682,
      "ank": 683,
      "gesch": 684,
      "itz": 685,
      "Reg": 686,
      "Mittw": 687,
      "neuen": 688,
      "Mittwoch": 689,
      "Fre": 690,
      "Mo": 691,
      "Wohn": 692,
      "iz": 693,
      "lo": 694,
      "ma": 695,
      "satz": 696,
      "ug": 697,
      "iele": 698,
      "stand": 699,
      "ität": 700,
      "ller": 701,
      "diesem": 702,
      "Fed": 703,
      "Wähl": 704,
      "kauf": 705,
      "ment": 706,
      "prä": 707,
      "ubl": 708,
      "wicht": 709,
      "unde": 710,
      "tes": 711,
      "ord": 712,
      "ünf": 713,
      "Par": 714,
      "ak": 715,
      "wä": 716,
      "ühr": 717,
      "unser": 718,
      "ang": 719,
      "ard": 720,
      "Stra": 721,
      "Eine": 722,
      "ive": 723,
      "Arb": 724,
      "uppe": 725,
      "Sy": 726,
      "vom": 727,
      "ens": 728,
      "enden": 729,
      "bereits": 730,
      "beg": 731,
      "sehr": 732,
      "beim": 733,
      "Sta": 734,
      "halb": 735,
      "öffent": 736,
      "19": 737,
      "BBC": 738,
      "Lei": 739,
      "Wei": 740,
      "land": 741,
      "mich": 742,
      "off": 743,
      "rund": 744,
      "tschaft": 745,
      "ald": 746,
      "orden": 747,
      "amil": 748,
      "mittel": 749,
      "weil": 750,
      "Ent": 751,
      "Grenze": 752,
      "Bei": 753,
      "Groß": 754,
      "dung": 755,
      "doch": 756,
      "mber": 757,
      "rich": 758,
      "während": 759,
      "ück": 760,
      "erst": 761,
      "ingen": 762,
      "aupt": 763,
      "sche": 764,
      "verl": 765,
      "wurden": 766,
      "ossen": 767,
      "zwischen": 768,
      "15": 769,
      "30": 770,
      "Kran": 771,
      "Min": 772,
      "Mal": 773,
      "nie": 774,
      "tre": 775,
      "Über": 776,
      "ert": 777,
      "etwa": 778,
      "kommt": 779,
      "Grenz": 780,
      "Lamb": 781,
      "Fin": 782,
      "Mr": 783,
      "fünf": 784,
      "mp": 785,
      "zahl": 786,
      "äd": 787,
      "erklär": 788,
      "gest": 789,
      "bel": 790,
      "Leben": 791,
      "Bl": 792,
      "Kl": 793,
      "Kar": 794,
      "Kont": 795,
      "Pun": 796,
      "Was": 797,
      "groß": 798,
      "kur": 799,
      "od": 800,
      "sa": 801,
      "äter": 802,
      "roat": 803,
      "ierten": 804,
      "werde": 805,
      "etwas": 806,
      "Uni": 807,
      "ings": 808,
      "höh": 809,
      "Team": 810,
      "selbst": 811,
      "stellt": 812,
      "würde": 813,
      "Fe": 814,
      "Hä": 815,
      "ekt": 816,
      "frage": 817,
      "kün": 818,
      "ow": 819,
      "tag": 820,
      "äu": 821,
      "eigen": 822,
      "gehör": 823,
      "rech": 824,
      "tzung": 825,
      "Und": 826,
      "ihrer": 827,
      "zeich": 828,
      "möglich": 829,
      "ohne": 830,
      "machen": 831,
      "EU": 832,
      "ble": 833,
      "gte": 834,
      "ihm": 835,
      "pun": 836,
      "ichte": 837,
      "esse": 838,
      "cken": 839,
      "tze": 840,
      "olit": 841,
      "schlie": 842,
      "Gruppe": 843,
      "wohn": 844,
      "fest": 845,
      "andere": 846,
      "Millionen": 847,
      "Akt": 848,
      "Famil": 849,
      "Her": 850,
      "Kin": 851,
      "Land": 852,
      "Or": 853,
      "Prä": 854,
      "Sa": 855,
      "Wenn": 856,
      "ko": 857,
      "näch": 858,
      "ucht": 859,
      "uchen": 860,
      "einige": 861,
      "nachdem": 862,
      "glau": 863,
      "Europ": 864,
      "Fu": 865,
      "Führ": 866,
      "Hand": 867,
      "hand": 868,
      "get": 869,
      "urg": 870,
      "vergan": 871,
      "ison": 872,
      "stehen": 873,
      "steht": 874,
      "opp": 875,
      "kehr": 876,
      "minister": 877,
      "müssen": 878,
      "Fuß": 879,
      "Am": 880,
      "For": 881,
      "Je": 882,
      "Ko": 883,
      "Ser": 884,
      "ahn": 885,
      "ften": 886,
      "iff": 887,
      "ogen": 888,
      "vier": 889,
      "ös": 890,
      "stie": 891,
      "gese": 892,
      "auer": 893,
      "schie": 894,
      "itzen": 895,
      "isten": 896,
      "stem": 897,
      "Produ": 898,
      "Mitgl": 899,
      "jedoch": 900,
      "darauf": 901,
      "Co": 902,
      "He": 903,
      "Lu": 904,
      "Ob": 905,
      "Wie": 906,
      "lassen": 907,
      "publ": 908,
      "qu": 909,
      "ts": 910,
      "walt": 911,
      "gef": 912,
      "schein": 913,
      "denten": 914,
      "gend": 915,
      "ats": 916,
      "esen": 917,
      "verb": 918,
      "wirk": 919,
      "reis": 920,
      "änder": 921,
      "weg": 922,
      "Ende": 923,
      "sterreich": 924,
      "forder": 925,
      "Wähler": 926,
      "10": 927,
      "Che": 928,
      "Haus": 929,
      "Mü": 930,
      "Not": 931,
      "hol": 932,
      "ker": 933,
      "mir": 934,
      "chs": 935,
      "innen": 936,
      "ant": 937,
      "amm": 938,
      "ischer": 939,
      "rad": 940,
      "Stadt": 941,
      "sicher": 942,
      "Verein": 943,
      "Schl": 944,
      "klar": 945,
      "wohl": 946,
      "rank": 947,
      "anderen": 948,
      "Wirtschaft": 949,
      "18": 950,
      "50": 951,
      "Bet": 952,
      "Dam": 953,
      "Gl": 954,
      "Jähr": 955,
      "Kom": 956,
      "Mont": 957,
      "Welt": 958,
      "ball": 959,
      "nun": 960,
      "richt": 961,
      "smittel": 962,
      "tlich": 963,
      "weit": 964,
      "ine": 965,
      "stra": 966,
      "schon": 967,
      "schwer": 968,
      "ater": 969,
      "roßen": 970,
      "let": 971,
      "später": 972,
      "Schul": 973,
      "Ungar": 974,
      "schlossen": 975,
      "zentr": 976,
      "Mitarbei": 977,
      "ritt": 978,
      "gebnis": 979,
      "form": 980,
      "besser": 981,
      "fahren": 982,
      "sident": 983,
      "USA": 984,
      "gleich": 985,
      "damit": 986,
      "vergangenen": 987,
      "publikan": 988,
      "12": 989,
      "Clin": 990,
      "Fahr": 991,
      "Med": 992,
      "Wer": 993,
      "Ze": 994,
      "by": 995,
      "dien": 996,
      "io": 997,
      "nten": 998,
      "oten": 999,
      "offen": 1000,
      "pte": 1001,
      "sä": 1002,
      "worden": 1003,
      "ere": 1004,
      "erwar": 1005,
      "stim": 1006,
      "einz": 1007,
      "geht": 1008,
      "onder": 1009,
      "schw": 1010,
      "vert": 1011,
      "Proble": 1012,
      "Inter": 1013,
      "auchen": 1014,
      "ott": 1015,
      "gang": 1016,
      "raum": 1017,
      "weitere": 1018,
      "rise": 1019,
      "Markt": 1020,
      "allem": 1021,
      "vest": 1022,
      "Woche": 1023,
      "hält": 1024,
      "Ungarn": 1025,
      "Clinton": 1026,
      "Bay": 1027,
      "PS": 1028,
      "Rei": 1029,
      "ce": 1030,
      "frü": 1031,
      "hier": 1032,
      "hil": 1033,
      "hme": 1034,
      "hät": 1035,
      "lung": 1036,
      "mein": 1037,
      "our": 1038,
      "ub": 1039,
      "uten": 1040,
      "ws": 1041,
      "zun": 1042,
      "ße": 1043,
      "chte": 1044,
      "inner": 1045,
      "eiten": 1046,
      "stän": 1047,
      "ges": 1048,
      "orgen": 1049,
      "agt": 1050,
      "bet": 1051,
      "igung": 1052,
      "rechen": 1053,
      "eln": 1054,
      "Verletz": 1055,
      "Gesch": 1056,
      "Geschäft": 1057,
      "ennen": 1058,
      "ihren": 1059,
      "seien": 1060,
      "sammen": 1061,
      "stral": 1062,
      "markt": 1063,
      "17": 1064,
      "Asy": 1065,
      "Bo": 1066,
      "Br": 1067,
      "Bau": 1068,
      "Mus": 1069,
      "Pers": 1070,
      "Tra": 1071,
      "Uhr": 1072,
      "kam": 1073,
      "muss": 1074,
      "viele": 1075,
      "ieder": 1076,
      "eister": 1077,
      "stadt": 1078,
      "ans": 1079,
      "gele": 1080,
      "gestellt": 1081,
      "schn": 1082,
      "scher": 1083,
      "zusammen": 1084,
      "ague": 1085,
      "isk": 1086,
      "ommen": 1087,
      "beiden": 1088,
      "ett": 1089,
      "Sport": 1090,
      "dazu": 1091,
      "ational": 1092,
      "Flüchtlingen": 1093,
      "League": 1094,
      "Monat": 1095,
      "Septe": 1096,
      "Entschei": 1097,
      "Kranken": 1098,
      "Univers": 1099,
      "Chef": 1100,
      "September": 1101,
      "Bes": 1102,
      "Car": 1103,
      "Chan": 1104,
      "Teil": 1105,
      "Zin": 1106,
      "abe": 1107,
      "dr": 1108,
      "nung": 1109,
      "plan": 1110,
      "tun": 1111,
      "uter": 1112,
      "wahr": 1113,
      "inter": 1114,
      "stär": 1115,
      "achte": 1116,
      "igkeit": 1117,
      "issen": 1118,
      "äng": 1119,
      "Ergebnis": 1120,
      "bracht": 1121,
      "osit": 1122,
      "wollen": 1123,
      "grö": 1124,
      "höher": 1125,
      "Flüchtlings": 1126,
      "Unterstü": 1127,
      "könnte": 1128,
      "Umfrage": 1129,
      "ruck": 1130,
      "nahme": 1131,
      "sollte": 1132,
      "gemein": 1133,
      "tragen": 1134,
      "Studie": 1135,
      "zial": 1136,
      "roatien": 1137,
      "Saison": 1138,
      "40": 1139,
      "Bi": 1140,
      "Cor": 1141,
      "Des": 1142,
      "Frage": 1143,
      "Kand": 1144,
      "Kroatien": 1145,
      "Sam": 1146,
      "dort": 1147,
      "fä": 1148,
      "fre": 1149,
      "großen": 1150,
      "haupt": 1151,
      "ks": 1152,
      "ou": 1153,
      "pers": 1154,
      "eng": 1155,
      "enz": 1156,
      "statt": 1157,
      "denen": 1158,
      "bewer": 1159,
      "leben": 1160,
      "lichkeit": 1161,
      "ions": 1162,
      "hatten": 1163,
      "sollen": 1164,
      "Jahres": 1165,
      "dafür": 1166,
      "Auch": 1167,
      "unterstü": 1168,
      "zehn": 1169,
      "hinter": 1170,
      "stellung": 1171,
      "würden": 1172,
      "finden": 1173,
      "dieses": 1174,
      "meisten": 1175,
      "Frauen": 1176,
      "Ihre": 1177,
      "Regierung": 1178,
      "Finanz": 1179,
      "erklärte": 1180,
      "Familie": 1181,
      "Asyl": 1182,
      ").": 1183,
      "Com": 1184,
      "Ger": 1185,
      "Män": 1186,
      "Met": 1187,
      "Pe": 1188,
      "Part": 1189,
      "Ur": 1190,
      "Zahl": 1191,
      "eben": 1192,
      "hel": 1193,
      "jähr": 1194,
      "kten": 1195,
      "kont": 1196,
      "pr": 1197,
      "zess": 1198,
      "üd": 1199,
      "erk": 1200,
      "erl": 1201,
      "ersch": 1202,
      "erste": 1203,
      "erhalten": 1204,
      "chten": 1205,
      "under": 1206,
      "anger": 1207,
      "derzeit": 1208,
      "tete": 1209,
      "one": 1210,
      "schle": 1211,
      "genommen": 1212,
      "amer": 1213,
      "veröffent": 1214,
      "igten": 1215,
      "recht": 1216,
      "line": 1217,
      "Grund": 1218,
      "woll": 1219,
      "ationen": 1220,
      "blei": 1221,
      "anders": 1222,
      "Berlin": 1223,
      "Platz": 1224,
      "Arbeits": 1225,
      "olitik": 1226,
      "nächsten": 1227,
      "Montag": 1228,
      "Dr": 1229,
      "Fr": 1230,
      "Gen": 1231,
      "Mein": 1232,
      "Pf": 1233,
      "Tre": 1234,
      "dre": 1235,
      "fft": 1236,
      "if": 1237,
      "lfte": 1238,
      "ober": 1239,
      "ock": 1240,
      "such": 1241,
      "sitzen": 1242,
      "uf": 1243,
      "uar": 1244,
      "voll": 1245,
      "zogen": 1246,
      "iner": 1247,
      "andel": 1248,
      "gesagt": 1249,
      "gebracht": 1250,
      "schne": 1251,
      "denken": 1252,
      "aly": 1253,
      "ament": 1254,
      "sechs": 1255,
      "ache": 1256,
      "ürz": 1257,
      "ragen": 1258,
      "sagten": 1259,
      "Republikan": 1260,
      "bringen": 1261,
      "blick": 1262,
      "weniger": 1263,
      "Neu": 1264,
      "führt": 1265,
      "führen": 1266,
      "Monate": 1267,
      "Quart": 1268,
      "Wochen": 1269,
      "abend": 1270,
      "wichtig": 1271,
      "Punkte": 1272,
      "punkt": 1273,
      "Präsident": 1274,
      "Fußball": 1275,
      "stieg": 1276,
      "Bayern": 1277,
      "16": 1278,
      "Für": 1279,
      "Frank": 1280,
      "Hö": 1281,
      "Mc": 1282,
      "Tag": 1283,
      "Vi": 1284,
      "ah": 1285,
      "dor": 1286,
      "fern": 1287,
      "fast": 1288,
      "jahr": 1289,
      "kä": 1290,
      "mo": 1291,
      "mon": 1292,
      "mand": 1293,
      "mus": 1294,
      "oft": 1295,
      "utz": 1296,
      "ständ": 1297,
      "gegeben": 1298,
      "onen": 1299,
      "außer": 1300,
      "ichten": 1301,
      "schrei": 1302,
      "zug": 1303,
      "verkauf": 1304,
      "reg": 1305,
      "Ange": 1306,
      "allen": 1307,
      "schlagen": 1308,
      "dabei": 1309,
      "jekt": 1310,
      "zeigt": 1311,
      "nerstag": 1312,
      "könne": 1313,
      "Als": 1314,
      "spielen": 1315,
      "läne": 1316,
      "Donnerstag": 1317,
      "höhung": 1318,
      "schließ": 1319,
      "Aktien": 1320,
      "Mitarbeiter": 1321,
      "byn": 1322,
      "schnit": 1323,
      "Unterstützung": 1324,
      "Corbyn": 1325,
      "100": 1326,
      "Doll": 1327,
      "Fil": 1328,
      "Geld": 1329,
      "Ho": 1330,
      "Ide": 1331,
      "Kamp": 1332,
      "Laden": 1333,
      "Wahl": 1334,
      "bin": 1335,
      "ehe": 1336,
      "ov": 1337,
      "pl": 1338,
      "pass": 1339,
      "ry": 1340,
      "sent": 1341,
      "wahl": 1342,
      "Österreich": 1343,
      "sta": 1344,
      "gesam": 1345,
      "ash": 1346,
      "itze": 1347,
      "ativ": 1348,
      "berg": 1349,
      "achen": 1350,
      "ichtung": 1351,
      "legen": 1352,
      "rem": 1353,
      "cks": 1354,
      "olog": 1355,
      "ändern": 1356,
      "meter": 1357,
      "Austral": 1358,
      "schaffen": 1359,
      "hinzu": 1360,
      "liegt": 1361,
      "ihnen": 1362,
      "deutlich": 1363,
      "okrat": 1364,
      "Bilder": 1365,
      "Arbeit": 1366,
      "Hälfte": 1367,
      "Müller": 1368,
      "Geschäfts": 1369,
      "Krankenhaus": 1370,
      "persön": 1371,
      "..": 1372,
      "14": 1373,
      "25": 1374,
      "Ben": 1375,
      "Bus": 1376,
      "Brit": 1377,
      "Di": 1378,
      "Kur": 1379,
      "Op": 1380,
      "Po": 1381,
      "Rich": 1382,
      "Sen": 1383,
      "Sich": 1384,
      "Wo": 1385,
      "War": 1386,
      "bil": 1387,
      "bien": 1388,
      "fang": 1389,
      "gie": 1390,
      "gten": 1391,
      "gute": 1392,
      "har": 1393,
      "lauf": 1394,
      "mann": 1395,
      "sol": 1396,
      "zer": 1397,
      "öhn": 1398,
      "erweise": 1399,
      "inge": 1400,
      "anden": 1401,
      "einigen": 1402,
      "teten": 1403,
      "aum": 1404,
      "ause": 1405,
      "ase": 1406,
      "ity": 1407,
      "atur": 1408,
      "atür": 1409,
      "ammen": 1410,
      "ager": 1411,
      "setzen": 1412,
      "ums": 1413,
      "entr": 1414,
      "omin": 1415,
      "sprechen": 1416,
      "sogar": 1417,
      "Innen": 1418,
      "Invest": 1419,
      "heraus": 1420,
      "daten": 1421,
      "letzte": 1422,
      "könnten": 1423,
      "gewesen": 1424,
      "rieben": 1425,
      "ließ": 1426,
      "Spieler": 1427,
      "konnte": 1428,
      "findet": 1429,
      "aktue": 1430,
      "system": 1431,
      "Studenten": 1432,
      "erziel": 1433,
      "Champ": 1434,
      "Freund": 1435,
      "Kinder": 1436,
      "schließlich": 1437,
      "Dollar": 1438,
      "atürlich": 1439,
      "11": 1440,
      "60": 1441,
      "Det": 1442,
      "El": 1443,
      "Fir": 1444,
      "Li": 1445,
      "Lin": 1446,
      "Rad": 1447,
      "Rück": 1448,
      "Son": 1449,
      "Tor": 1450,
      "Wa": 1451,
      "bü": 1452,
      "cash": 1453,
      "dopp": 1454,
      "fon": 1455,
      "fand": 1456,
      "frei": 1457,
      "fort": 1458,
      "gaben": 1459,
      "hiel": 1460,
      "iar": 1461,
      "kein": 1462,
      "krit": 1463,
      "keiten": 1464,
      "lern": 1465,
      "rag": 1466,
      "öt": 1467,
      "cher": 1468,
      "unge": 1469,
      "stei": 1470,
      "essen": 1471,
      "ama": 1472,
      "amt": 1473,
      "bevor": 1474,
      "bekann": 1475,
      "roffen": 1476,
      "iere": 1477,
      "irekt": 1478,
      "igt": 1479,
      "lefon": 1480,
      "nete": 1481,
      "dessen": 1482,
      "raft": 1483,
      "wert": 1484,
      "Schm": 1485,
      "heute": 1486,
      "stens": 1487,
      "griff": 1488,
      "gramm": 1489,
      "opf": 1490,
      "fehl": 1491,
      "fektion": 1492,
      "letzt": 1493,
      "rieb": 1494,
      "handel": 1495,
      "nahmen": 1496,
      "frist": 1497,
      "meister": 1498,
      "wäre": 1499,
      "Kontro": 1500,
      "gehört": 1501,
      "Mitglied": 1502,
      "Entscheidung": 1503,
      "Metcash": 1504,
      "helfen": 1505,
      "kontro": 1506,
      "ehemal": 1507,
      "Sicher": 1508,
      "23": 1509,
      "500": 1510,
      "Alt": 1511,
      "BM": 1512,
      "Bar": 1513,
      "Bru": 1514,
      "Chin": 1515,
      "Hier": 1516,
      "John": 1517,
      "Kön": 1518,
      "Mig": 1519,
      "Richtung": 1520,
      "Sho": 1521,
      "Th": 1522,
      "af": 1523,
      "ai": 1524,
      "av": 1525,
      "ade": 1526,
      "bie": 1527,
      "drit": 1528,
      "ehmen": 1529,
      "kun": 1530,
      "lament": 1531,
      "mel": 1532,
      "up": 1533,
      "vo": 1534,
      "vie": 1535,
      "wär": 1536,
      "zwar": 1537,
      "zern": 1538,
      "öl": 1539,
      "enzen": 1540,
      "chn": 1541,
      "infektion": 1542,
      "ief": 1543,
      "schied": 1544,
      "ürger": 1545,
      "irurg": 1546,
      "umen": 1547,
      "tzte": 1548,
      "rax": 1549,
      "State": 1550,
      "ktur": 1551,
      "warum": 1552,
      "Verb": 1553,
      "Vert": 1554,
      "änger": 1555,
      "Inn": 1556,
      "aller": 1557,
      "Beg": 1558,
      "Behör": 1559,
      "klag": 1560,
      "glob": 1561,
      "brachte": 1562,
      "lange": 1563,
      "obil": 1564,
      "blie": 1565,
      "teilt": 1566,
      "teilte": 1567,
      "wenig": 1568,
      "besonder": 1569,
      "sollten": 1570,
      "versuch": 1571,
      "versuchen": 1572,
      "Thema": 1573,
      "fallen": 1574,
      "Gese": 1575,
      "Weg": 1576,
      "Mannschaft": 1577,
      "Mehr": 1578,
      "stark": 1579,
      "Donald": 1580,
      "Strate": 1581,
      "Syr": 1582,
      "ädchen": 1583,
      "kündig": 1584,
      "Serbien": 1585,
      "Medien": 1586,
      "Problem": 1587,
      "Zinser": 1588,
      "Männer": 1589,
      "kämp": 1590,
      "Champions": 1591,
      "29": 1592,
      "Camer": 1593,
      "FC": 1594,
      "Frü": 1595,
      "Haupt": 1596,
      "Ju": 1597,
      "Mün": 1598,
      "Mädchen": 1599,
      "Pläne": 1600,
      "Que": 1601,
      "Sitz": 1602,
      "Tage": 1603,
      "Während": 1604,
      "ac": 1605,
      "ail": 1606,
      "ds": 1607,
      "don": 1608,
      "dings": 1609,
      "hoch": 1610,
      "heits": 1611,
      "ift": 1612,
      "keinen": 1613,
      "lig": 1614,
      "lungen": 1615,
      "laut": 1616,
      "mals": 1617,
      "not": 1618,
      "posit": 1619,
      "ven": 1620,
      "wand": 1621,
      "wick": 1622,
      "ys": 1623,
      "eröff": 1624,
      "iegel": 1625,
      "antw": 1626,
      "gesehen": 1627,
      "auen": 1628,
      "schul": 1629,
      "ungar": 1630,
      "bede": 1631,
      "isik": 1632,
      "entiss": 1633,
      "ome": 1634,
      "nichts": 1635,
      "sieben": 1636,
      "reichen": 1637,
      "hnen": 1638,
      "Angel": 1639,
      "ände": 1640,
      "Auft": 1641,
      "Außen": 1642,
      "ünst": 1643,
      "grund": 1644,
      "ranten": 1645,
      "Lehr": 1646,
      "Telefon": 1647,
      "spielt": 1648,
      "Monaten": 1649,
      "gemacht": 1650,
      "Milliar": 1651,
      "falls": 1652,
      "Bild": 1653,
      "Prentiss": 1654,
      "erzähl": 1655,
      "Mode": 1656,
      "Wohnungs": 1657,
      "unsere": 1658,
      "richten": 1659,
      "Karl": 1660,
      "möglicherweise": 1661,
      "gesetzt": 1662,
      "Jährige": 1663,
      "zunehmen": 1664,
      "ständig": 1665,
      "unterstützen": 1666,
      "Australia": 1667,
      "okratischen": 1668,
      "König": 1669,
      "infektionsmittel": 1670,
      "Behörden": 1671,
      "Cameron": 1672,
      "),": 1673,
      "All": 1674,
      "Aben": 1675,
      "Celt": 1676,
      "Kopf": 1677,
      "Mö": 1678,
      "Mut": 1679,
      "Pass": 1680,
      "Prem": 1681,
      "Res": 1682,
      "Sanders": 1683,
      "Zwei": 1684,
      "Zins": 1685,
      "dür": 1686,
      "druck": 1687,
      "fu": 1688,
      "fung": 1689,
      "fass": 1690,
      "gung": 1691,
      "ian": 1692,
      "idaten": 1693,
      "krä": 1694,
      "koh": 1695,
      "licht": 1696,
      "lust": 1697,
      "th": 1698,
      "ud": 1699,
      "wach": 1700,
      "wissen": 1701,
      "zt": 1702,
      "zin": 1703,
      "erhö": 1704,
      "eicht": 1705,
      "eidig": 1706,
      "ana": 1707,
      "einzu": 1708,
      "gefr": 1709,
      "geschlossen": 1710,
      "ong": 1711,
      "onnen": 1712,
      "ital": 1713,
      "urop": 1714,
      "rotz": 1715,
      "rasch": 1716,
      "Stunden": 1717,
      "spro": 1718,
      "Dies": 1719,
      "sowie": 1720,
      "Projekt": 1721,
      "alles": 1722,
      "Spitze": 1723,
      "iges": 1724,
      "serb": 1725,
      "ille": 1726,
      "zeigen": 1727,
      "oss": 1728,
      "halt": 1729,
      "adrat": 1730,
      "seines": 1731,
      "mehrere": 1732,
      "ganis": 1733,
      "durchschnit": 1734,
      "fühl": 1735,
      "Engl": 1736,
      "gegenüber": 1737,
      "darüber": 1738,
      "seln": 1739,
      "News": 1740,
      "spieler": 1741,
      "Berei": 1742,
      "front": 1743,
      "ziehen": 1744,
      "ayne": 1745,
      "ächst": 1746,
      "deutschen": 1747,
      "duz": 1748,
      "Gesund": 1749,
      "Gesprä": 1750,
      "hausen": 1751,
      "Quadrat": 1752,
      "sichts": 1753,
      "Auto": 1754,
      "heim": 1755,
      "trag": 1756,
      "Exper": 1757,
      "präsent": 1758,
      "Parlament": 1759,
      "Staats": 1760,
      "Europa": 1761,
      "Führer": 1762,
      "Kosten": 1763,
      "scheinlich": 1764,
      "wirklich": 1765,
      "lett": 1766,
      "hätten": 1767,
      "Geschichte": 1768,
      "wahrscheinlich": 1769,
      "größ": 1770,
      "bewerber": 1771,
      "Idee": 1772,
      "irektor": 1773,
      "kunft": 1774,
      "raxis": 1775,
      "Syrien": 1776,
      "Celtic": 1777,
      "Quadratmeter": 1778,
      "27": 1779,
      "35": 1780,
      "Amer": 1781,
      "Bürger": 1782,
      "Fol": 1783,
      "GA": 1784,
      "Hin": 1785,
      "Handel": 1786,
      "IGA": 1787,
      "Mu": 1788,
      "Mart": 1789,
      "Nam": 1790,
      "Nicht": 1791,
      "Okt": 1792,
      "Pack": 1793,
      "Su": 1794,
      "Seit": 1795,
      "Zus": 1796,
      "aar": 1797,
      "beit": 1798,
      "fun": 1799,
      "feld": 1800,
      "gust": 1801,
      "ider": 1802,
      "ite": 1803,
      "lau": 1804,
      "lage": 1805,
      "mä": 1806,
      "mat": 1807,
      "mlich": 1808,
      "par": 1809,
      "rig": 1810,
      "ta": 1811,
      "wander": 1812,
      "welt": 1813,
      "Öff": 1814,
      "enter": 1815,
      "ande": 1816,
      "einf": 1817,
      "auern": 1818,
      "destens": 1819,
      "alb": 1820,
      "alif": 1821,
      "asse": 1822,
      "bert": 1823,
      "verwen": 1824,
      "verschie": 1825,
      "aufge": 1826,
      "ign": 1827,
      "igte": 1828,
      "mitt": 1829,
      "entwick": 1830,
      "reag": 1831,
      "ausge": 1832,
      "stet": 1833,
      "Start": 1834,
      "werte": 1835,
      "sieht": 1836,
      "reisen": 1837,
      "Angeb": 1838,
      "Anfang": 1839,
      "Prof": 1840,
      "Inst": 1841,
      "Beam": 1842,
      "Behand": 1843,
      "Gew": 1844,
      "Gewalt": 1845,
      "davon": 1846,
      "August": 1847,
      "gangen": 1848,
      "geln": 1849,
      "fügte": 1850,
      "Vorsitzen": 1851,
      "gewinnen": 1852,
      "daran": 1853,
      "Art": 1854,
      "weiterhin": 1855,
      "Mark": 1856,
      "Zusch": 1857,
      "frag": 1858,
      "Imm": 1859,
      "anzler": 1860,
      "idt": 1861,
      "scheiden": 1862,
      "Leist": 1863,
      "treffen": 1864,
      "wohner": 1865,
      "glauben": 1866,
      "Forscher": 1867,
      "Mitglieder": 1868,
      "Damit": 1869,
      "University": 1870,
      "Carson": 1871,
      "plant": 1872,
      "Kandidaten": 1873,
      "Asylbewerber": 1874,
      "wollte": 1875,
      "Meinung": 1876,
      "schnell": 1877,
      "Film": 1878,
      "ovic": 1879,
      "Migranten": 1880,
      "Milliarden": 1881,
      "kohol": 1882,
      "Oktober": 1883,
      "AA": 1884,
      "Bü": 1885,
      "Bel": 1886,
      "Bank": 1887,
      "Bahn": 1888,
      "Den": 1889,
      "Durch": 1890,
      "Dinge": 1891,
      "Fo": 1892,
      "Frei": 1893,
      "Fern": 1894,
      "Fall": 1895,
      "Fragen": 1896,
      "HP": 1897,
      "Kunden": 1898,
      "Lös": 1899,
      "Mich": 1900,
      "Mär": 1901,
      "On": 1902,
      "Ot": 1903,
      "Publ": 1904,
      "Rom": 1905,
      "Rauchen": 1906,
      "Risik": 1907,
      "San": 1908,
      "Ti": 1909,
      "Tagen": 1910,
      "burg": 1911,
      "ex": 1912,
      "ehr": 1913,
      "gabe": 1914,
      "händ": 1915,
      "kre": 1916,
      "käu": 1917,
      "los": 1918,
      "lub": 1919,
      "meine": 1920,
      "nied": 1921,
      "of": 1922,
      "ote": 1923,
      "sage": 1924,
      "tor": 1925,
      "ugen": 1926,
      "wend": 1927,
      "Är": 1928,
      "erfol": 1929,
      "inger": 1930,
      "unst": 1931,
      "standen": 1932,
      "anten": 1933,
      "einander": 1934,
      "einmal": 1935,
      "deren": 1936,
      "tegr": 1937,
      "denn": 1938,
      "alten": 1939,
      "ative": 1940,
      "lleicht": 1941,
      "agne": 1942,
      "besten": 1943,
      "bekommen": 1944,
      "beton": 1945,
      "bezeich": 1946,
      "verur": 1947,
      "iste": 1948,
      "isiert": 1949,
      "eitag": 1950,
      "auszu": 1951,
      "demokratischen": 1952,
      "werk": 1953,
      "spann": 1954,
      "Diese": 1955,
      "Analy": 1956,
      "Probst": 1957,
      "Schw": 1958,
      "ängen": 1959,
      "etten": 1960,
      "Intern": 1961,
      "Gemein": 1962,
      "Recht": 1963,
      "day": 1964,
      "Augen": 1965,
      "Grün": 1966,
      "Mittel": 1967,
      "brit": 1968,
      "bring": 1969,
      "llegen": 1970,
      "ganz": 1971,
      "Vorwahl": 1972,
      "Leute": 1973,
      "kommenden": 1974,
      "zweite": 1975,
      "versucht": 1976,
      "läs": 1977,
      "ziell": 1978,
      "arbeiten": 1979,
      "sondern": 1980,
      "klärung": 1981,
      "gleichen": 1982,
      "innt": 1983,
      "sichtlich": 1984,
      "Dav": 1985,
      "lowen": 1986,
      "Staaten": 1987,
      "öffentlich": 1988,
      "Lebensmittel": 1989,
      "sah": 1990,
      "Produkte": 1991,
      "Luft": 1992,
      "innerhalb": 1993,
      "Verletzung": 1994,
      "Trainer": 1995,
      "gemeinsam": 1996,
      "Freitag": 1997,
      "dorf": 1998,
      "Angeklag": 1999,
      "Radio": 2000,
      "bekannt": 2001,
      "Bruder": 2002,
      "Jugend": 2003,
      "Abend": 2004,
      "Mutter": 2005,
      "England": 2006,
      "Experten": 2007,
      "Zusammen": 2008,
      "Otmar": 2009,
      "13": 2010,
      "App": 2011,
      "Bin": 2012,
      "Bis": 2013,
      "Bern": 2014,
      "Back": 2015,
      "Dis": 2016,
      "Doch": 2017,
      "Fel": 2018,
      "Föhn": 2019,
      "Gau": 2020,
      "Grad": 2021,
      "Hei": 2022,
      "Hayne": 2023,
      "Job": 2024,
      "Jul": 2025,
      "Kr": 2026,
      "Kor": 2027,
      "Kir": 2028,
      "Krit": 2029,
      "Lauf": 2030,
      "Leit": 2031,
      "Miss": 2032,
      "National": 2033,
      "Ober": 2034,
      "Praxis": 2035,
      "Sim": 2036,
      "Wen": 2037,
      "Wach": 2038,
      "Wil": 2039,
      "Yor": 2040,
      "Zentr": 2041,
      "air": 2042,
      "bte": 2043,
      "co": 2044,
      "dro": 2045,
      "digen": 2046,
      "fan": 2047,
      "ging": 2048,
      "hmer": 2049,
      "ip": 2050,
      "iver": 2051,
      "ja": 2052,
      "jen": 2053,
      "kan": 2054,
      "kung": 2055,
      "kroat": 2056,
      "kreis": 2057,
      "mil": 2058,
      "morgen": 2059,
      "ren": 2060,
      "süd": 2061,
      "uer": 2062,
      "wn": 2063,
      "wel": 2064,
      "wagen": 2065,
      "zel": 2066,
      "ähe": 2067,
      "ötet": 2068,
      "chter": 2069,
      "indem": 2070,
      "intern": 2071,
      "ieber": 2072,
      "eitet": 2073,
      "sto": 2074,
      "stum": 2075,
      "stru": 2076,
      "anzu": 2077,
      "einge": 2078,
      "gebe": 2079,
      "dete": 2080,
      "deten": 2081,
      "asi": 2082,
      "asst": 2083,
      "genann": 2084,
      "llig": 2085,
      "verp": 2086,
      "immt": 2087,
      "neben": 2088,
      "nehmer": 2089,
      "cke": 2090,
      "ommer": 2091,
      "stelle": 2092,
      "ftig": 2093,
      "weis": 2094,
      "ilber": 2095,
      "annien": 2096,
      "sofort": 2097,
      "Vergleich": 2098,
      "Angaben": 2099,
      "wiesen": 2100,
      "allein": 2101,
      "ennt": 2102,
      "komp": 2103,
      "zept": 2104,
      "bruch": 2105,
      "langen": 2106,
      "wech": 2107,
      "ganze": 2108,
      "Vorspr": 2109,
      "bisher": 2110,
      "Nacht": 2111,
      "Nachbar": 2112,
      "teilweise": 2113,
      "ice": 2114,
      "liegen": 2115,
      "ruf": 2116,
      "New": 2117,
      "führer": 2118,
      "nisse": 2119,
      "zieh": 2120,
      "ziellen": 2121,
      "fert": 2122,
      "Poliz": 2123,
      "Zeitpunkt": 2124,
      "2016": 2125,
      "Stev": 2126,
      "sidenten": 2127,
      "örder": 2128,
      "Konrad": 2129,
      "Mang": 2130,
      "langfrist": 2131,
      "folge": 2132,
      "Sozial": 2133,
      "Freunde": 2134,
      "unserer": 2135,
      "Staat": 2136,
      "Großbrit": 2137,
      "Minister": 2138,
      "Black": 2139,
      "Wasser": 2140,
      "große": 2141,
      "schließen": 2142,
      "glaube": 2143,
      "Führung": 2144,
      "getötet": 2145,
      "gefunden": 2146,
      "Schlag": 2147,
      "Fahrer": 2148,
      "sätz": 2149,
      "erwartet": 2150,
      "einzige": 2151,
      "vertrau": 2152,
      "hilfe": 2153,
      "hätte": 2154,
      "Musik": 2155,
      "Universität": 2156,
      "Besuch": 2157,
      "Bibel": 2158,
      "Comp": 2159,
      "ebenso": 2160,
      "Vide": 2161,
      "gesamt": 2162,
      "Wood": 2163,
      "Waffen": 2164,
      "Sicherheit": 2165,
      "Show": 2166,
      "Thom": 2167,
      "Möglich": 2168,
      "Premier": 2169,
      "Titel": 2170,
      "Ärz": 2171,
      "Vorwahlen": 2172,
      "David": 2173,
      "Großbritannien": 2174,
      "80": 2175,
      "At": 2176,
      "Bro": 2177,
      "Bieber": 2178,
      "Dar": 2179,
      "Dort": 2180,
      "Dia": 2181,
      "Guar": 2182,
      "Hause": 2183,
      "IAA": 2184,
      "Kall": 2185,
      "Kap": 2186,
      "Künst": 2187,
      "La": 2188,
      "Lie": 2189,
      "Lan": 2190,
      "Lon": 2191,
      "Lab": 2192,
      "Mor": 2193,
      "Merk": 2194,
      "Nieder": 2195,
      "Nähe": 2196,
      "Per": 2197,
      "Plan": 2198,
      "Politik": 2199,
      "Rh": 2200,
      "Rund": 2201,
      "Sh": 2202,
      "Sal": 2203,
      "Sel": 2204,
      "Slowen": 2205,
      "Tw": 2206,
      "Tig": 2207,
      "Vier": 2208,
      "Zur": 2209,
      "Zig": 2210,
      "Zum": 2211,
      "Ziel": 2212,
      "aun": 2213,
      "bur": 2214,
      "dan": 2215,
      "dungen": 2216,
      "ding": 2217,
      "fassen": 2218,
      "kr": 2219,
      "kin": 2220,
      "lag": 2221,
      "macht": 2222,
      "miss": 2223,
      "nam": 2224,
      "ntag": 2225,
      "nimmt": 2226,
      "prü": 2227,
      "sk": 2228,
      "suchen": 2229,
      "ti": 2230,
      "the": 2231,
      "utet": 2232,
      "ufen": 2233,
      "vent": 2234,
      "wider": 2235,
      "yp": 2236,
      "äten": 2237,
      "österreich": 2238,
      "stein": 2239,
      "stät": 2240,
      "städ": 2241,
      "ani": 2242,
      "geführt": 2243,
      "also": 2244,
      "itu": 2245,
      "itter": 2246,
      "gene": 2247,
      "zufolge": 2248,
      "ator": 2249,
      "terin": 2250,
      "bereit": 2251,
      "berichte": 2252,
      "urm": 2253,
      "befindet": 2254,
      "achten": 2255,
      "verein": 2256,
      "verletzt": 2257,
      "iers": 2258,
      "imovic": 2259,
      "isse": 2260,
      "ument": 2261,
      "ione": 2262,
      "Stad": 2263,
      "sport": 2264,
      "wirtschaft": 2265,
      "ffe": 2266,
      "haft": 2267,
      "reise": 2268,
      "Verfass": 2269,
      "Ansicht": 2270,
      "Erklärung": 2271,
      "gericht": 2272,
      "Einzel": 2273,
      "Gegen": 2274,
      "ikum": 2275,
      "ikation": 2276,
      "brauchen": 2277,
      "ington": 2278,
      "halte": 2279,
      "Dem": 2280,
      "gebie": 2281,
      "Tex": 2282,
      "Techn": 2283,
      "rieden": 2284,
      "Nachrichten": 2285,
      "ickt": 2286,
      "zweiten": 2287,
      "stellte": 2288,
      "weiteren": 2289,
      "leicht": 2290,
      "napp": 2291,
      "nahm": 2292,
      "Deutsche": 2293,
      "hof": 2294,
      "dient": 2295,
      "fahrer": 2296,
      "2015": 2297,
      "arbeitet": 2298,
      "Robert": 2299,
      "Plauen": 2300,
      "machte": 2301,
      "Todes": 2302,
      "Presse": 2303,
      "Autos": 2304,
      "Wählern": 2305,
      "System": 2306,
      "199": 2307,
      "niemand": 2308,
      "ody": 2309,
      "punkte": 2310,
      "nächste": 2311,
      "stimm": 2312,
      "zunächst": 2313,
      "Boden": 2314,
      "Person": 2315,
      "Partei": 2316,
      "bleiben": 2317,
      "bleibt": 2318,
      "Treffen": 2319,
      "Höhe": 2320,
      "außerhalb": 2321,
      "Corbyns": 2322,
      "Kampagne": 2323,
      "cksilber": 2324,
      "Innenminister": 2325,
      "erzielte": 2326,
      "Detail": 2327,
      "Sonntag": 2328,
      "hielt": 2329,
      "Schmidt": 2330,
      "BMI": 2331,
      "Johnson": 2332,
      "bieten": 2333,
      "wären": 2334,
      "irurgie": 2335,
      "Beginn": 2336,
      "Zinserhöhung": 2337,
      "München": 2338,
      "Sitzung": 2339,
      "schuldig": 2340,
      "fuhr": 2341,
      "gefragt": 2342,
      "Namen": 2343,
      "Instit": 2344,
      "Lösung": 2345,
      "Online": 2346,
      "Publikum": 2347,
      "Felste": 2348,
      "Vorsprung": 2349,
      "Labour": 2350,
      "Rhein": 2351,
      "Tigers": 2352,
      "Zigar": 2353,
      "dingungen": 2354,
      "24": 2355,
      "28": 2356,
      "Bran": 2357,
      "Chr": 2358,
      "Do": 2359,
      "Delt": 2360,
      "Disk": 2361,
      "Druck": 2362,
      "Direktor": 2363,
      "Em": 2364,
      "Go": 2365,
      "Gil": 2366,
      "Hil": 2367,
      "Ihnen": 2368,
      "Jan": 2369,
      "Kn": 2370,
      "Kil": 2371,
      "Kunst": 2372,
      "Laut": 2373,
      "Mik": 2374,
      "Morgen": 2375,
      "No": 2376,
      "Natürlich": 2377,
      "Pat": 2378,
      "Preis": 2379,
      "Riv": 2380,
      "Rennen": 2381,
      "Raum": 2382,
      "Sei": 2383,
      "Sha": 2384,
      "Süd": 2385,
      "Sommer": 2386,
      "Tur": 2387,
      "Tür": 2388,
      "Tim": 2389,
      "Tran": 2390,
      "Ult": 2391,
      "Vo": 2392,
      "Viel": 2393,
      "Vort": 2394,
      "Xav": 2395,
      "bo": 2396,
      "bung": 2397,
      "bald": 2398,
      "cen": 2399,
      "dner": 2400,
      "drück": 2401,
      "disk": 2402,
      "eher": 2403,
      "fel": 2404,
      "fiel": 2405,
      "gän": 2406,
      "hau": 2407,
      "hir": 2408,
      "hington": 2409,
      "ikt": 2410,
      "kü": 2411,
      "kel": 2412,
      "kürz": 2413,
      "kraft": 2414,
      "la": 2415,
      "mü": 2416,
      "nä": 2417,
      "ph": 2418,
      "rt": 2419,
      "tut": 2420,
      "ult": 2421,
      "ykl": 2422,
      "äre": 2423,
      "öst": 2424,
      "chst": 2425,
      "inde": 2426,
      "eigenen": 2427,
      "steigen": 2428,
      "gekommen": 2429,
      "geschlagen": 2430,
      "aucht": 2431,
      "diesen": 2432,
      "are": 2433,
      "arbeit": 2434,
      "zuvor": 2435,
      "atten": 2436,
      "esp": 2437,
      "llschaft": 2438,
      "beein": 2439,
      "behau": 2440,
      "verm": 2441,
      "verstär": 2442,
      "ürmer": 2443,
      "benöt": 2444,
      "mittag": 2445,
      "umm": 2446,
      "entfern": 2447,
      "neten": 2448,
      "cker": 2449,
      "deshalb": 2450,
      "Stand": 2451,
      "uth": 2452,
      "weiß": 2453,
      "ola": 2454,
      "warten": 2455,
      "vorher": 2456,
      "hnt": 2457,
      "Schied": 2458,
      "Schong": 2459,
      "ling": 2460,
      "Erst": 2461,
      "abil": 2462,
      "Bell": 2463,
      "gerung": 2464,
      "Einwander": 2465,
      "Spr": 2466,
      "schlug": 2467,
      "Rede": 2468,
      "igem": 2469,
      "schaften": 2470,
      "indung": 2471,
      "jeder": 2472,
      "jeden": 2473,
      "jeweil": 2474,
      "zeichen": 2475,
      "brauch": 2476,
      "ationalen": 2477,
      "iven": 2478,
      "räge": 2479,
      "gebaut": 2480,
      "teilen": 2481,
      "insgesamt": 2482,
      "Umsatz": 2483,
      "agement": 2484,
      "leist": 2485,
      "konzentr": 2486,
      "konfront": 2487,
      "rifft": 2488,
      "essor": 2489,
      "Stellen": 2490,
      "Konfl": 2491,
      "Konkur": 2492,
      "Konzern": 2493,
      "gleiche": 2494,
      "Manche": 2495,
      "heiten": 2496,
      "häuf": 2497,
      "vielen": 2498,
      "Moody": 2499,
      "beginnt": 2500,
      "offi": 2501,
      "Kontakt": 2502,
      "Washington": 2503,
      "eigene": 2504,
      "recher": 2505,
      "kosten": 2506,
      "Obwohl": 2507,
      "gefähr": 2508,
      "Vereinigten": 2509,
      "Wirtschafts": 2510,
      "Schulden": 2511,
      "sätze": 2512,
      "stimmen": 2513,
      "Clintons": 2514,
      "früher": 2515,
      "Personen": 2516,
      "gelegt": 2517,
      "Chance": 2518,
      "interess": 2519,
      "größer": 2520,
      "Biden": 2521,
      "Kandid": 2522,
      "Samstag": 2523,
      "Peter": 2524,
      "ebenfalls": 2525,
      "Gener": 2526,
      "schreiben": 2527,
      "Hosp": 2528,
      "persönlichen": 2529,
      "ehemalige": 2530,
      "dritten": 2531,
      "allerdings": 2532,
      "blieb": 2533,
      "versuchte": 2534,
      "Strategie": 2535,
      "Quecksilber": 2536,
      "antwort": 2537,
      "Lehrer": 2538,
      "raschall": 2539,
      "Öffent": 2540,
      "käufe": 2541,
      "Bruderschaft": 2542,
      "Kritik": 2543,
      "Wenger": 2544,
      "Stevens": 2545,
      "Guardi": 2546,
      "London": 2547,
      "Slowenien": 2548,
      "Zigaretten": 2549,
      "Delta": 2550,
      "Gildner": 2551,
      "Ultraschall": 2552,
      "Xavi": 2553,
      "Schieds": 2554,
      "21": 2555,
      "45": 2556,
      "75": 2557,
      "Daten": 2558,
      "Fa": 2559,
      "Fach": 2560,
      "Gro": 2561,
      "HE": 2562,
      "Hoch": 2563,
      "Jo": 2564,
      "Lig": 2565,
      "Lage": 2566,
      "Mil": 2567,
      "Meister": 2568,
      "Nur": 2569,
      "Ph": 2570,
      "Pil": 2571,
      "PHE": 2572,
      "Ra": 2573,
      "Sol": 2574,
      "Sing": 2575,
      "Tat": 2576,
      "Von": 2577,
      "Vol": 2578,
      "Wal": 2579,
      "Wert": 2580,
      "Wett": 2581,
      "bu": 2582,
      "fro": 2583,
      "flä": 2584,
      "hü": 2585,
      "hne": 2586,
      "iffen": 2587,
      "jün": 2588,
      "ly": 2589,
      "lim": 2590,
      "länd": 2591,
      "länger": 2592,
      "mm": 2593,
      "mär": 2594,
      "mper": 2595,
      "no": 2596,
      "nern": 2597,
      "natürlich": 2598,
      "sor": 2599,
      "trotz": 2600,
      "uge": 2601,
      "uck": 2602,
      "wlett": 2603,
      "zit": 2604,
      "ßt": 2605,
      "äl": 2606,
      "äden": 2607,
      "engen": 2608,
      "erinner": 2609,
      "angeb": 2610,
      "geschäft": 2611,
      "getragen": 2612,
      "oni": 2613,
      "ony": 2614,
      "online": 2615,
      "auben": 2616,
      "ichtet": 2617,
      "schü": 2618,
      "schuss": 2619,
      "deck": 2620,
      "delt": 2621,
      "itten": 2622,
      "itär": 2623,
      "itionen": 2624,
      "orm": 2625,
      "amme": 2626,
      "beste": 2627,
      "beschäft": 2628,
      "betes": 2629,
      "setzt": 2630,
      "setzte": 2631,
      "verd": 2632,
      "verdien": 2633,
      "verständ": 2634,
      "verdient": 2635,
      "liches": 2636,
      "entscheiden": 2637,
      "neun": 2638,
      "ausende": 2639,
      "Str": 2640,
      "user": 2641,
      "uts": 2642,
      "weisen": 2643,
      "senden": 2644,
      "olf": 2645,
      "wart": 2646,
      "ffer": 2647,
      "voraus": 2648,
      "vorbei": 2649,
      "Anzahl": 2650,
      "Andre": 2651,
      "Angriff": 2652,
      "Progr": 2653,
      "Schaden": 2654,
      "Schott": 2655,
      "hler": 2656,
      "medi": 2657,
      "Ern": 2658,
      "Erhöhung": 2659,
      "abge": 2660,
      "Jahrzehn": 2661,
      "Einige": 2662,
      "Einsatz": 2663,
      "Geb": 2664,
      "Gef": 2665,
      "Gewicht": 2666,
      "schlä": 2667,
      "daher": 2668,
      "kleiner": 2669,
      "Sieg": 2670,
      "jemand": 2671,
      "eilen": 2672,
      "zeigten": 2673,
      "wolle": 2674,
      "grün": 2675,
      "griffen": 2676,
      "ationale": 2677,
      "llege": 2678,
      "ganzen": 2679,
      "obwohl": 2680,
      "räum": 2681,
      "Debü": 2682,
      "Entw": 2683,
      "Untersuch": 2684,
      "geworden": 2685,
      "Aussage": 2686,
      "Test": 2687,
      "Nachdem": 2688,
      "darunter": 2689,
      "teilung": 2690,
      "ihrem": 2691,
      "Arch": 2692,
      "ics": 2693,
      "lief": 2694,
      "steller": 2695,
      "schädig": 2696,
      "Grenzen": 2697,
      "wenige": 2698,
      "Bericht": 2699,
      "ziemlich": 2700,
      "altung": 2701,
      "2010": 2702,
      "deutsche": 2703,
      "sych": 2704,
      "Rolle": 2705,
      "örper": 2706,
      "mindestens": 2707,
      "vember": 2708,
      "West": 2709,
      "uppen": 2710,
      "apier": 2711,
      "bauen": 2712,
      "startet": 2713,
      "Prin": 2714,
      "Unternehmens": 2715,
      "Autob": 2716,
      "Wohnungen": 2717,
      "FedEx": 2718,
      "mentare": 2719,
      "wält": 2720,
      "Straßen": 2721,
      "richter": 2722,
      "verlieren": 2723,
      "Malmö": 2724,
      "Grenzüber": 2725,
      "Grenzkontro": 2726,
      "zahlen": 2727,
      "erklärt": 2728,
      "kurz": 2729,
      "rechten": 2730,
      "Kindern": 2731,
      "getroffen": 2732,
      "Hewlett": 2733,
      "Obama": 2734,
      "wegung": 2735,
      "fordert": 2736,
      "Notruf": 2737,
      "Damon": 2738,
      "Kommentare": 2739,
      "Reihe": 2740,
      "Reihen": 2741,
      "Chancen": 2742,
      "stärker": 2743,
      "höhere": 2744,
      "freund": 2745,
      "veröffentlich": 2746,
      "wollten": 2747,
      "Republikaner": 2748,
      "Republikanern": 2749,
      "Wochenende": 2750,
      "...": 2751,
      "Bush": 2752,
      "Post": 2753,
      "aktuelle": 2754,
      "doppel": 2755,
      "China": 2756,
      "Verteidig": 2757,
      "besonders": 2758,
      "kündigte": 2759,
      "Früh": 2760,
      "Königreich": 2761,
      "erhöhen": 2762,
      "uropä": 2763,
      "durchschnittlich": 2764,
      "Bereich": 2765,
      "duziert": 2766,
      "Gespräche": 2767,
      "größten": 2768,
      "Packard": 2769,
      "Professor": 2770,
      "Behandlung": 2771,
      "Vorsitzende": 2772,
      "Zuschauer": 2773,
      "Immobil": 2774,
      "anzlerin": 2775,
      "Risiko": 2776,
      "händler": 2777,
      "betonte": 2778,
      "verurs": 2779,
      "Angeklagten": 2780,
      "kroatische": 2781,
      "struktur": 2782,
      "Computer": 2783,
      "Ärzte": 2784,
      "Diabetes": 2785,
      "Landes": 2786,
      "Merkel": 2787,
      "Selbst": 2788,
      "ituation": 2789,
      "Felstehausen": 2790,
      "Diskuss": 2791,
      "Januar": 2792,
      "November": 2793,
      "Seite": 2794,
      "diskut": 2795,
      "Manchester": 2796,
      "Kandidat": 2797,
      "Schottland": 2798,
      "medizin": 2799,
      ",\"": 2800,
      "36": 2801,
      "300": 2802,
      "44": 2803,
      "90": 2804,
      "Alle": 2805,
      "Astra": 2806,
      "Bre": 2807,
      "Bill": 2808,
      "Bad": 2809,
      "Center": 2810,
      "Dro": 2811,
      "Denn": 2812,
      "Drit": 2813,
      "Dou": 2814,
      "Ehr": 2815,
      "Eigen": 2816,
      "Ener": 2817,
      "Fun": 2818,
      "Fans": 2819,
      "Gre": 2820,
      "Glei": 2821,
      "Herz": 2822,
      "Hunder": 2823,
      "Hände": 2824,
      "IP": 2825,
      "Is": 2826,
      "Just": 2827,
      "Ka": 2828,
      "Ke": 2829,
      "Kart": 2830,
      "Kok": 2831,
      "Krise": 2832,
      "Kraft": 2833,
      "Lut": 2834,
      "Mom": 2835,
      "Mot": 2836,
      "Matt": 2837,
      "Nomin": 2838,
      "Prü": 2839,
      "Run": 2840,
      "Sc": 2841,
      "Sun": 2842,
      "Sau": 2843,
      "Sar": 2844,
      "Situation": 2845,
      "Tom": 2846,
      "Tab": 2847,
      "Viele": 2848,
      "Wissen": 2849,
      "Xi": 2850,
      "Zahn": 2851,
      "ael": 2852,
      "bach": 2853,
      "bra": 2854,
      "brei": 2855,
      "dit": 2856,
      "emp": 2857,
      "fur": 2858,
      "frieden": 2859,
      "gü": 2860,
      "gal": 2861,
      "gument": 2862,
      "hi": 2863,
      "häng": 2864,
      "hunder": 2865,
      "ib": 2866,
      "ial": 2867,
      "kus": 2868,
      "krise": 2869,
      "knapp": 2870,
      "lad": 2871,
      "lass": 2872,
      "lok": 2873,
      "liste": 2874,
      "mag": 2875,
      "poli": 2876,
      "polit": 2877,
      "resp": 2878,
      "sitz": 2879,
      "to": 2880,
      "tä": 2881,
      "tö": 2882,
      "wus": 2883,
      "wähl": 2884,
      "zü": 2885,
      "zke": 2886,
      "endet": 2887,
      "eren": 2888,
      "erei": 2889,
      "erwä": 2890,
      "erhält": 2891,
      "chmal": 2892,
      "invest": 2893,
      "ies": 2894,
      "stür": 2895,
      "stör": 2896,
      "anst": 2897,
      "ders": 2898,
      "gezogen": 2899,
      "ted": 2900,
      "scht": 2901,
      "schri": 2902,
      "dene": 2903,
      "denke": 2904,
      "alte": 2905,
      "alter": 2906,
      "argument": 2907,
      "iten": 2908,
      "genug": 2909,
      "ore": 2910,
      "orten": 2911,
      "zusätz": 2912,
      "atch": 2913,
      "llt": 2914,
      "amy": 2915,
      "tere": 2916,
      "beru": 2917,
      "berichten": 2918,
      "ure": 2919,
      "sehe": 2920,
      "acher": 2921,
      "verr": 2922,
      "verw": 2923,
      "aufzu": 2924,
      "aufnahme": 2925,
      "aufgenommen": 2926,
      "ierungs": 2927,
      "irgend": 2928,
      "igner": 2929,
      "lege": 2930,
      "imm": 2931,
      "ismus": 2932,
      "ummer": 2933,
      "desinfektionsmittel": 2934,
      "ausforder": 2935,
      "Stre": 2936,
      "Stunde": 2937,
      "Storm": 2938,
      "werker": 2939,
      "spiegel": 2940,
      "ochter": 2941,
      "reifen": 2942,
      "vorstellen": 2943,
      "Verkauf": 2944,
      "Anstieg": 2945,
      "Programm": 2946,
      "Schritt": 2947,
      "Integr": 2948,
      "abzu": 2949,
      "Beschäft": 2950,
      "Bedingungen": 2951,
      "gere": 2952,
      "gert": 2953,
      "gerade": 2954,
      "Geor": 2955,
      "Rest": 2956,
      "Reform": 2957,
      "Rezess": 2958,
      "Regeln": 2959,
      "herap": 2960,
      "kleine": 2961,
      "kommer": 2962,
      "eilung": 2963,
      "braucht": 2964,
      "grenz": 2965,
      "wellen": 2966,
      "gewann": 2967,
      "ried": 2968,
      "Menge": 2969,
      "Arsen": 2970,
      "Alkohol": 2971,
      "besitz": 2972,
      "handelt": 2973,
      "nahe": 2974,
      "hohen": 2975,
      "läger": 2976,
      "lätze": 2977,
      "führte": 2978,
      "würdig": 2979,
      "möchte": 2980,
      "möchten": 2981,
      "2013": 2982,
      "2014": 2983,
      "Step": 2984,
      "Stelle": 2985,
      "aktion": 2986,
      "Themen": 2987,
      "fluss": 2988,
      "Dienst": 2989,
      "baren": 2990,
      "ogra": 2991,
      "strö": 2992,
      "Trumps": 2993,
      "endete": 2994,
      "Mai": 2995,
      "Mail": 2996,
      "Qualif": 2997,
      "Daher": 2998,
      "Meer": 2999,
      "folgen": 3000,
      "Tod": 3001,
      "Today": 3002,
      "müsse": 3003,
      "South": 3004,
      "2008": 3005,
      "2009": 3006,
      "damals": 3007,
      "sprach": 3008,
      "spruch": 3009,
      "Chirurgie": 3010,
      "Freunden": 3011,
      "iziert": 3012,
      "Park": 3013,
      "unseren": 3014,
      "beginnen": 3015,
      "Weihn": 3016,
      "Beispiel": 3017,
      "verloren": 3018,
      "nieder": 3019,
      "treten": 3020,
      "gestern": 3021,
      "United": 3022,
      "zeichnet": 3023,
      "anderem": 3024,
      "Aktie": 3025,
      "Familien": 3026,
      "Herausforder": 3027,
      "Ort": 3028,
      "Organis": 3029,
      "Europä": 3030,
      "Jetzt": 3031,
      "gesetz": 3032,
      "scheint": 3033,
      "verband": 3034,
      "wirkungen": 3035,
      "forderte": 3036,
      "holen": 3037,
      "Fahrze": 3038,
      "Probleme": 3039,
      "früh": 3040,
      "betont": 3041,
      "Verletzungen": 3042,
      "Zinsen": 3043,
      "Desinfektionsmittel": 3044,
      "bewerb": 3045,
      "Partner": 3046,
      "priv": 3047,
      "press": 3048,
      "veröffentlicht": 3049,
      "Berliner": 3050,
      "Quartal": 3051,
      "staat": 3052,
      "Arbeitsp": 3053,
      "Firma": 3054,
      "kontroll": 3055,
      "vielleicht": 3056,
      "kämpfen": 3057,
      "iftung": 3058,
      "eröffnet": 3059,
      "Angela": 3060,
      "Auftrag": 3061,
      "erzählte": 3062,
      "serbischen": 3063,
      "Gesundheits": 3064,
      "Super": 3065,
      "mittler": 3066,
      "Gewinn": 3067,
      "Fernsehen": 3068,
      "International": 3069,
      "lässt": 3070,
      "Juli": 3071,
      "Wachstum": 3072,
      "jenigen": 3073,
      "stoßen": 3074,
      "ziehung": 3075,
      "Video": 3076,
      "Thomas": 3077,
      "Brown": 3078,
      "Künstler": 3079,
      "Viertel": 3080,
      "Text": 3081,
      "stimmte": 3082,
      "Details": 3083,
      "Rivalen": 3084,
      "behaup": 3085,
      "Schongau": 3086,
      "Bellamy": 3087,
      "größere": 3088,
      "Hospiz": 3089,
      "Guardiola": 3090,
      "Rahmen": 3091,
      "Debüt": 3092,
      "Entwick": 3093,
      "Immobilien": 3094,
      "Drittel": 3095,
      "Kartoff": 3096,
      "Luther": 3097,
      "Nominierung": 3098,
      "Sarah": 3099,
      "52": 3100,
      "Ai": 3101,
      "As": 3102,
      "Amt": 3103,
      "Aktion": 3104,
      "Bund": 3105,
      "Bor": 3106,
      "Bot": 3107,
      "Buch": 3108,
      "Blo": 3109,
      "Club": 3110,
      "Dal": 3111,
      "Dach": 3112,
      "Dre": 3113,
      "Ed": 3114,
      "Fisch": 3115,
      "Fischer": 3116,
      "Gel": 3117,
      "Ha": 3118,
      "Ham": 3119,
      "Hel": 3120,
      "Hog": 3121,
      "Hinter": 3122,
      "Jun": 3123,
      "Jour": 3124,
      "Junge": 3125,
      "Kat": 3126,
      "Kre": 3127,
      "LA": 3128,
      "Ly": 3129,
      "Lau": 3130,
      "Last": 3131,
      "Lang": 3132,
      "Läden": 3133,
      "NN": 3134,
      "Nahr": 3135,
      "Nive": 3136,
      "OS": 3137,
      "Ost": 3138,
      "Oper": 3139,
      "Pau": 3140,
      "Ru": 3141,
      "Ring": 3142,
      "Rob": 3143,
      "Rös": 3144,
      "SA": 3145,
      "SP": 3146,
      "Ster": 3147,
      "Seine": 3148,
      "Sonder": 3149,
      "Tisch": 3150,
      "Trau": 3151,
      "UN": 3152,
      "Up": 3153,
      "Vic": 3154,
      "Wien": 3155,
      "Wern": 3156,
      "Will": 3157,
      "Wort": 3158,
      "Wolf": 3159,
      "Zir": 3160,
      "Zykl": 3161,
      "ax": 3162,
      "ain": 3163,
      "abel": 3164,
      "ban": 3165,
      "bat": 3166,
      "bro": 3167,
      "con": 3168,
      "cus": 3169,
      "dau": 3170,
      "dach": 3171,
      "dank": 3172,
      "ezial": 3173,
      "fei": 3174,
      "fit": 3175,
      "gien": 3176,
      "gern": 3177,
      "guter": 3178,
      "hie": 3179,
      "hes": 3180,
      "ham": 3181,
      "hungen": 3182,
      "hard": 3183,
      "hallen": 3184,
      "ix": 3185,
      "ior": 3186,
      "ium": 3187,
      "kW": 3188,
      "ki": 3189,
      "kab": 3190,
      "krie": 3191,
      "kamp": 3192,
      "kord": 3193,
      "krank": 3194,
      "lö": 3195,
      "les": 3196,
      "mun": 3197,
      "mot": 3198,
      "nu": 3199,
      "nü": 3200,
      "nal": 3201,
      "nann": 3202,
      "oo": 3203,
      "po": 3204,
      "pen": 3205,
      "por": 3206,
      "piel": 3207,
      "part": 3208,
      "politik": 3209,
      "paar": 3210,
      "rän": 3211,
      "sh": 3212,
      "tät": 3213,
      "tage": 3214,
      "tief": 3215,
      "ule": 3216,
      "wann": 3217,
      "wanger": 3218,
      "ym": 3219,
      "ziel": 3220,
      "ßnahmen": 3221,
      "äum": 3222,
      "enten": 3223,
      "erle": 3224,
      "erhe": 3225,
      "erfü": 3226,
      "erreichen": 3227,
      "ining": 3228,
      "eist": 3229,
      "eile": 3230,
      "stu": 3231,
      "stro": 3232,
      "stunde": 3233,
      "stürz": 3234,
      "stabil": 3235,
      "eingesetzt": 3236,
      "geber": 3237,
      "gefallen": 3238,
      "ones": 3239,
      "aubt": 3240,
      "austral": 3241,
      "scheinen": 3242,
      "schrieb": 3243,
      "arch": 3244,
      "genau": 3245,
      "tenden": 3246,
      "zuletzt": 3247,
      "ters": 3248,
      "besch": 3249,
      "bemer": 3250,
      "beob": 3251,
      "besteht": 3252,
      "beschle": 3253,
      "bezogen": 3254,
      "versam": 3255,
      "verantwort": 3256,
      "roit": 3257,
      "igkeiten": 3258,
      "istor": 3259,
      "istische": 3260,
      "lex": 3261,
      "legt": 3262,
      "isher": 3263,
      "issi": 3264,
      "isierte": 3265,
      "entsprechen": 3266,
      "ney": 3267,
      "nell": 3268,
      "isches": 3269,
      "real": 3270,
      "republikan": 3271,
      "beide": 3272,
      "Star": 3273,
      "ktiv": 3274,
      "sper": 3275,
      "spiele": 3276,
      "ware": 3277,
      "wards": 3278,
      "hai": 3279,
      "solle": 3280,
      "sozi": 3281,
      "vorber": 3282,
      "vorüber": 3283,
      "Verkehr": 3284,
      "Versuch": 3285,
      "Verlust": 3286,
      "Antw": 3287,
      "Anti": 3288,
      "Anzeichen": 3289,
      "Prote": 3290,
      "Schä": 3291,
      "Schach": 3292,
      "Schutz": 3293,
      "Schatten": 3294,
      "Schläger": 3295,
      "ängt": 3296,
      "hlt": 3297,
      "ette": 3298,
      "Ins": 3299,
      "Indu": 3300,
      "Unfall": 3301,
      "Eröff": 3302,
      "Erfahr": 3303,
      "absol": 3304,
      "Behaupt": 3305,
      "Bezug": 3306,
      "Bemü": 3307,
      "Bewegung": 3308,
      "geraten": 3309,
      "Einer": 3310,
      "Sprecher": 3311,
      "schluss": 3312,
      "Regen": 3313,
      "Repräsent": 3314,
      "ennung": 3315,
      "dagegen": 3316,
      "klei": 3317,
      "klagt": 3318,
      "Grö": 3319,
      "Griff": 3320,
      "schaff": 3321,
      "schafft": 3322,
      "Mitte": 3323,
      "jedes": 3324,
      "jemals": 3325,
      "unterrich": 3326,
      "gress": 3327,
      "landes": 3328,
      "oper": 3329,
      "obte": 3330,
      "räumen": 3331,
      "Vorstand": 3332,
      "Eng": 3333,
      "anderer": 3334,
      "uchs": 3335,
      "gewicht": 3336,
      "gewähl": 3337,
      "bislang": 3338,
      "Ausstellung": 3339,
      "Auswirkungen": 3340,
      "rief": 3341,
      "zenten": 3342,
      "darum": 3343,
      "ppi": 3344,
      "Umwelt": 3345,
      "ican": 3346,
      "liebte": 3347,
      "achts": 3348,
      "fordern": 3349,
      "Aldi": 3350,
      "leihen": 3351,
      "Neben": 3352,
      "konnten": 3353,
      "konzern": 3354,
      "hoben": 3355,
      "spielte": 3356,
      "Maria": 3357,
      "Berg": 3358,
      "Zudem": 3359,
      "läu": 3360,
      "Aufsichts": 3361,
      "zielle": 3362,
      "ferenz": 3363,
      "üssel": 3364,
      "Stell": 3365,
      "ächlich": 3366,
      "flü": 3367,
      "örsen": 3368,
      "stück": 3369,
      "tradit": 3370,
      "Plak": 3371,
      "Maks": 3372,
      "Web": 3373,
      "Dienstagabend": 3374,
      "Lama": 3375,
      "folg": 3376,
      "Bundespoli": 3377,
      "heißt": 3378,
      "Ihren": 3379,
      "geschrieben": 3380,
      "geschickt": 3381,
      "losen": 3382,
      "itäts": 3383,
      "präsident": 3384,
      "Paris": 3385,
      "akis": 3386,
      "begann": 3387,
      "Leiche": 3388,
      "Weiß": 3389,
      "Minute": 3390,
      "Mrd": 3391,
      "Blick": 3392,
      "Klaus": 3393,
      "Karte": 3394,
      "großer": 3395,
      "großart": 3396,
      "höhungen": 3397,
      "Teams": 3398,
      "Fest": 3399,
      "Feder": 3400,
      "künftig": 3401,
      "Herr": 3402,
      "Präsidenten": 3403,
      "Handwerker": 3404,
      "kehren": 3405,
      "Kollegen": 3406,
      "waltung": 3407,
      "ändert": 3408,
      "Müll": 3409,
      "klare": 3410,
      "Betrieb": 3411,
      "Jährigen": 3412,
      "Komp": 3413,
      "richtung": 3414,
      "Mitarbeitern": 3415,
      "dienst": 3416,
      "erwarten": 3417,
      "schwier": 3418,
      "PSG": 3419,
      "Muslim": 3420,
      "Ergebnisse": 3421,
      "osition": 3422,
      "lebens": 3423,
      "Finanzmär": 3424,
      "Zahlen": 3425,
      "Arbeitsmarkt": 3426,
      "Frankfur": 3427,
      "Höchst": 3428,
      "verkauft": 3429,
      "verkaufen": 3430,
      "Kampf": 3431,
      "passiert": 3432,
      "staaten": 3433,
      "ologie": 3434,
      "Geschäftsführer": 3435,
      "persönliche": 3436,
      "ominiert": 3437,
      "Investitionen": 3438,
      "Studentenwohn": 3439,
      "Freundschaft": 3440,
      "Detroit": 3441,
      "Eltern": 3442,
      "Rückgang": 3443,
      "büro": 3444,
      "hielten": 3445,
      "steigt": 3446,
      "Kontrollen": 3447,
      "Kontrolle": 3448,
      "melten": 3449,
      "vollen": 3450,
      "blieben": 3451,
      "Mehrheit": 3452,
      "Tages": 3453,
      "ungarische": 3454,
      "ometer": 3455,
      "Wohnungsmarkt": 3456,
      "Zinssätze": 3457,
      "sprochen": 3458,
      "Dieses": 3459,
      "Parlaments": 3460,
      "Martin": 3461,
      "funk": 3462,
      "entwickelt": 3463,
      "Angebot": 3464,
      "Beamten": 3465,
      "fragte": 3466,
      "Leistung": 3467,
      "Belast": 3468,
      "Michael": 3469,
      "Märkte": 3470,
      "ehrlich": 3471,
      "niedrig": 3472,
      "bezeichnete": 3473,
      "Augenblick": 3474,
      "bringung": 3475,
      "Gault": 3476,
      "Kirche": 3477,
      "Laufe": 3478,
      "Mississi": 3479,
      "Simon": 3480,
      "York": 3481,
      "Zentralb": 3482,
      "fangen": 3483,
      "militär": 3484,
      "südlichen": 3485,
      "internationalen": 3486,
      "Polizisten": 3487,
      "Möglichkeit": 3488,
      "Kallstadt": 3489,
      "Twins": 3490,
      "städten": 3491,
      "genehm": 3492,
      "Plauener": 3493,
      "Instituts": 3494,
      "Hilfe": 3495,
      "Voice": 3496,
      "konfrontiert": 3497,
      "Konflikt": 3498,
      "Programme": 3499,
      "Autobahn": 3500,
      "Diskussion": 3501,
      "Energie": 3502,
      "Sunrise": 3503,
      "Arsenal": 3504,
      "Qualifikation": 3505,
      "Weihnachts": 3506,
      "Herausforderung": 3507,
      "Aiwanger": 3508,
      "Dalai": 3509,
      "Haft": 3510,
      "Hogg": 3511,
      "Journal": 3512,
      "Röszke": 3513,
      "Victor": 3514,
      "beschleun": 3515,
      "Indust": 3516,
      "Eröffnung": 3517,
      "traditione": 3518,
      "Mississippi": 3519,
      "120": 3520,
      "22": 3521,
      "26": 3522,
      "31": 3523,
      "33": 3524,
      "49": 3525,
      "55": 3526,
      "88": 3527,
      "800": 3528,
      "95": 3529,
      "Af": 3530,
      "Asen": 3531,
      "Abst": 3532,
      "Aller": 3533,
      "BS": 3534,
      "Bu": 3535,
      "Ban": 3536,
      "Bam": 3537,
      "Beit": 3538,
      "Ball": 3539,
      "Benn": 3540,
      "Brü": 3541,
      "Cann": 3542,
      "Camp": 3543,
      "Cap": 3544,
      "Cav": 3545,
      "Dow": 3546,
      "Dritt": 3547,
      "EM": 3548,
      "Far": 3549,
      "Fot": 3550,
      "Fru": 3551,
      "Förder": 3552,
      "GO": 3553,
      "Gar": 3554,
      "Gra": 3555,
      "Hü": 3556,
      "Hund": 3557,
      "Hit": 3558,
      "Halb": 3559,
      "IS": 3560,
      "Joch": 3561,
      "Kan": 3562,
      "Kal": 3563,
      "Kind": 3564,
      "King": 3565,
      "Krie": 3566,
      "Kult": 3567,
      "Körper": 3568,
      "Lor": 3569,
      "Mel": 3570,
      "Mad": 3571,
      "Mack": 3572,
      "Moren": 3573,
      "Nor": 3574,
      "Opt": 3575,
      "Pei": 3576,
      "Pir": 3577,
      "Päd": 3578,
      "Renn": 3579,
      "Rend": 3580,
      "Runs": 3581,
      "SE": 3582,
      "Sicht": 3583,
      "Such": 3584,
      "Satz": 3585,
      "Senden": 3586,
      "TT": 3587,
      "Ter": 3588,
      "Traum": 3589,
      "Tief": 3590,
      "Trotz": 3591,
      "Tochter": 3592,
      "Vater": 3593,
      "Wh": 3594,
      "Wahr": 3595,
      "Würmer": 3596,
      "Zw": 3597,
      "Zimmer": 3598,
      "Zaun": 3599,
      "bnis": 3600,
      "ca": 3601,
      "cel": 3602,
      "club": 3603,
      "dlich": 3604,
      "dungs": 3605,
      "dauer": 3606,
      "dauern": 3607,
      "ek": 3608,
      "echt": 3609,
      "europä": 3610,
      "fal": 3611,
      "falt": 3612,
      "fant": 3613,
      "fragen": 3614,
      "fisher": 3615,
      "gil": 3616,
      "ghan": 3617,
      "greich": 3618,
      "iOS": 3619,
      "jung": 3620,
      "jungen": 3621,
      "junge": 3622,
      "ka": 3623,
      "kor": 3624,
      "keits": 3625,
      "kaum": 3626,
      "kumen": 3627,
      "kennt": 3628,
      "len": 3629,
      "lagen": 3630,
      "mut": 3631,
      "meinen": 3632,
      "meiner": 3633,
      "mmer": 3634,
      "mass": 3635,
      "nungen": 3636,
      "nöt": 3637,
      "passt": 3638,
      "ron": 3639,
      "san": 3640,
      "sru": 3641,
      "sucht": 3642,
      "tue": 3643,
      "trau": 3644,
      "träge": 3645,
      "trifft": 3646,
      "vin": 3647,
      "wings": 3648,
      "watch": 3649,
      "zähl": 3650,
      "Ökumen": 3651,
      "äus": 3652,
      "öp": 3653,
      "öch": 3654,
      "enc": 3655,
      "enk": 3656,
      "erien": 3657,
      "erhöh": 3658,
      "erhielt": 3659,
      "chsel": 3660,
      "iet": 3661,
      "unt": 3662,
      "unan": 3663,
      "unsch": 3664,
      "unver": 3665,
      "unken": 3666,
      "unklar": 3667,
      "ungefähr": 3668,
      "eichen": 3669,
      "eigerung": 3670,
      "start": 3671,
      "stoff": 3672,
      "sturm": 3673,
      "eingel": 3674,
      "einschließlich": 3675,
      "dere": 3676,
      "gehe": 3677,
      "geord": 3678,
      "gegangen": 3679,
      "schm": 3680,
      "schär": 3681,
      "schick": 3682,
      "dex": 3683,
      "dell": 3684,
      "asen": 3685,
      "ary": 3686,
      "arzt": 3687,
      "itt": 3688,
      "orte": 3689,
      "orgt": 3690,
      "organis": 3691,
      "zufrieden": 3692,
      "attra": 3693,
      "ameister": 3694,
      "bericht": 3695,
      "urz": 3696,
      "beglei": 3697,
      "befand": 3698,
      "bestät": 3699,
      "beendete": 3700,
      "achel": 3701,
      "achtet": 3702,
      "verne": 3703,
      "verkehr": 3704,
      "verfahren": 3705,
      "ight": 3706,
      "istr": 3707,
      "istan": 3708,
      "isters": 3709,
      "ley": 3710,
      "lekt": 3711,
      "ish": 3712,
      "mitte": 3713,
      "mitten": 3714,
      "mitgl": 3715,
      "mitteilte": 3716,
      "entschie": 3717,
      "entdeck": 3718,
      "ischt": 3719,
      "regen": 3720,
      "omen": 3721,
      "ausgest": 3722,
      "stecken": 3723,
      "raten": 3724,
      "rakt": 3725,
      "Stat": 3726,
      "Steigerung": 3727,
      "ktionen": 3728,
      "ftige": 3729,
      "werfen": 3730,
      "sichten": 3731,
      "spar": 3732,
      "spekt": 3733,
      "ologen": 3734,
      "Dieser": 3735,
      "warm": 3736,
      "vorsicht": 3737,
      "übernehmen": 3738,
      "Verfü": 3739,
      "Verhand": 3740,
      "Vergangen": 3741,
      "ienen": 3742,
      "ienten": 3743,
      "Andere": 3744,
      "Prozess": 3745,
      "äneng": 3746,
      "hlen": 3747,
      "ets": 3748,
      "Index": 3749,
      "linken": 3750,
      "ernst": 3751,
      "wies": 3752,
      "Bedeut": 3753,
      "Beweise": 3754,
      "Einheit": 3755,
      "Einfluss": 3756,
      "Geg": 3757,
      "Geschä": 3758,
      "Gehir": 3759,
      "Spenden": 3760,
      "iker": 3761,
      "schlag": 3762,
      "Rekord": 3763,
      "Repor": 3764,
      "here": 3765,
      "herum": 3766,
      "hervor": 3767,
      "Außer": 3768,
      "kleinen": 3769,
      "untergebracht": 3770,
      "zeigte": 3771,
      "wobei": 3772,
      "grü": 3773,
      "gruppe": 3774,
      "Dass": 3775,
      "well": 3776,
      "wegs": 3777,
      "Prozentpunkte": 3778,
      "hinaus": 3779,
      "gelöst": 3780,
      "Vorstellung": 3781,
      "Vorjahr": 3782,
      "Enter": 3783,
      "Unterbringung": 3784,
      "ends": 3785,
      "ßenberg": 3786,
      "ritten": 3787,
      "gewalt": 3788,
      "gewöhn": 3789,
      "gewonnen": 3790,
      "gebil": 3791,
      "geboren": 3792,
      "Auswahl": 3793,
      "Ausschuss": 3794,
      "Temper": 3795,
      "Nachricht": 3796,
      "darf": 3797,
      "inson": 3798,
      "Umstän": 3799,
      "ließen": 3800,
      "Spielen": 3801,
      "Alb": 3802,
      "Alte": 3803,
      "Träneng": 3804,
      "hansa": 3805,
      "Marke": 3806,
      "Marco": 3807,
      "Zukunft": 3808,
      "utete": 3809,
      "Aufgabe": 3810,
      "zieht": 3811,
      "finan": 3812,
      "igere": 3813,
      "Zeitraum": 3814,
      "2011": 3815,
      "2017": 3816,
      "Steen": 3817,
      "Deutschlands": 3818,
      "ogle": 3819,
      "klärt": 3820,
      "Mane": 3821,
      "Manager": 3822,
      "Wechsel": 3823,
      "Dabei": 3824,
      "Lamm": 3825,
      "Mek": 3826,
      "Meter": 3827,
      "angekommen": 3828,
      "langsam": 3829,
      "zwöl": 3830,
      "Bildern": 3831,
      "Bildung": 3832,
      "Tour": 3833,
      "gehend": 3834,
      "Eurowings": 3835,
      "Bundesk": 3836,
      "Bundesreg": 3837,
      "Bundeslig": 3838,
      "müssten": 3839,
      "Donnell": 3840,
      "zip": 3841,
      "spricht": 3842,
      "ikaner": 3843,
      "Exp": 3844,
      "akzept": 3845,
      "Straße": 3846,
      "Sym": 3847,
      "ensland": 3848,
      "begonnen": 3849,
      "Weise": 3850,
      "schee": 3851,
      "verlor": 3852,
      "verlust": 3853,
      "150": 3854,
      "Punkt": 3855,
      "odwatch": 3856,
      "Häft": 3857,
      "künfte": 3858,
      "äude": 3859,
      "gehören": 3860,
      "rechnen": 3861,
      "Landkreis": 3862,
      "kollegen": 3863,
      "glaubt": 3864,
      "Europameister": 3865,
      "Form": 3866,
      "Serie": 3867,
      "stiegen": 3868,
      "Produktion": 3869,
      "Healy": 3870,
      "Lux": 3871,
      "Luke": 3872,
      "Wiese": 3873,
      "qualif": 3874,
      "holt": 3875,
      "holung": 3876,
      "Glas": 3877,
      "Glück": 3878,
      "Glenc": 3879,
      "Kommiss": 3880,
      "Weltmeister": 3881,
      "inez": 3882,
      "zentrum": 3883,
      "bessere": 3884,
      "Zelle": 3885,
      "Zeugen": 3886,
      "offenbar": 3887,
      "Interesse": 3888,
      "Interessen": 3889,
      "PSV": 3890,
      "Reise": 3891,
      "frühen": 3892,
      "drängen": 3893,
      "Designer": 3894,
      "Fragestunde": 3895,
      "engag": 3896,
      "Männern": 3897,
      "Ursel": 3898,
      "jähriger": 3899,
      "erlaubt": 3900,
      "erschre": 3901,
      "schlechter": 3902,
      "veröffentlichen": 3903,
      "dreht": 3904,
      "Quartiers": 3905,
      "Frankreich": 3906,
      "Vize": 3907,
      "schreibt": 3908,
      "region": 3909,
      "passieren": 3910,
      "Briten": 3911,
      "Open": 3912,
      "Opfer": 3913,
      "Richter": 3914,
      "Warum": 3915,
      "harmon": 3916,
      "aktuellen": 3917,
      "Firmen": 3918,
      "doppelt": 3919,
      "steiger": 3920,
      "Schmuck": 3921,
      "fehlt": 3922,
      "handels": 3923,
      "Metcashs": 3924,
      "view": 3925,
      "Statement": 3926,
      "globalen": 3927,
      "Gesellschaft": 3928,
      "Zinserhöhungen": 3929,
      "Queensland": 3930,
      "ungarischen": 3931,
      "bedeutet": 3932,
      "Außenminister": 3933,
      "Wohnungsbau": 3934,
      "Karlsru": 3935,
      "dürfen": 3936,
      "kräfte": 3937,
      "lustig": 3938,
      "uropa": 3939,
      "fühlen": 3940,
      "Gesundheit": 3941,
      "größte": 3942,
      "American": 3943,
      "Bürgermeister": 3944,
      "Folge": 3945,
      "Hinweis": 3946,
      "Martinez": 3947,
      "funktion": 3948,
      "mäß": 3949,
      "reagieren": 3950,
      "Beamte": 3951,
      "Fox": 3952,
      "März": 3953,
      "kret": 3954,
      "niedr": 3955,
      "erfolgreich": 3956,
      "Analysten": 3957,
      "bringt": 3958,
      "Lufthansa": 3959,
      "Korri": 3960,
      "komplett": 3961,
      "Mangos": 3962,
      "vertrauens": 3963,
      "Niederlage": 3964,
      "Shop": 3965,
      "danach": 3966,
      "kinakis": 3967,
      "namens": 3968,
      "vention": 3969,
      "berichtete": 3970,
      "Verfassung": 3971,
      "Gegensatz": 3972,
      "Patienten": 3973,
      "Shaw": 3974,
      "Trans": 3975,
      "Vielfalt": 3976,
      "beeindruck": 3977,
      "benötigen": 3978,
      "jeweils": 3979,
      "häufig": 3980,
      "offiziell": 3981,
      "Öffentlichkeit": 3982,
      "Favor": 3983,
      "Single": 3984,
      "Wettbewerb": 3985,
      "jüng": 3986,
      "ländischen": 3987,
      "wartungen": 3988,
      "schlägt": 3989,
      "Western": 3990,
      "Grenzkontrollen": 3991,
      "Frühjahr": 3992,
      "Eigentlich": 3993,
      "Funktion": 3994,
      "Händedesinfektionsmittel": 3995,
      "Kokkinakis": 3996,
      "Moment": 3997,
      "Prüfung": 3998,
      "Tabak": 3999,
      "Wissenschaft": 4000,
      "gült": 4001,
      "schrift": 4002,
      "Beschäftigung": 4003,
      "Rezession": 4004,
      "kommerziellen": 4005,
      "Dienstleist": 4006,
      "ograph": 4007,
      "behauptet": 4008,
      "LAX": 4009,
      "Lyth": 4010,
      "Laury": 4011,
      "Niveau": 4012,
      "Paul": 4013,
      "Upda": 4014,
      "Zirkus": 4015,
      "dauert": 4016,
      "hardt": 4017,
      "nutzen": 4018,
      "post": 4019,
      "stürzte": 4020,
      "verantwortlich": 4021,
      "Antwort": 4022,
      "Behauptungen": 4023,
      "Bemühungen": 4024,
      "Repräsentanten": 4025,
      "schaffte": 4026,
      "Aufsichtsrat": 4027,
      "Maksimovic": 4028,
      "Bundespolizei": 4029,
      "Federal": 4030,
      "Müllers": 4031,
      "Kompakt": 4032,
      "Gaultier": 4033,
      "Zentralbank": 4034,
      "Afghan": 4035,
      "Asendorf": 4036,
      "Allerdings": 4037,
      "Jochner": 4038,
      "Kingfisher": 4039,
      "Mackay": 4040,
      "Moreno": 4041,
      "Peißenberg": 4042,
      "Piräus": 4043,
      "Suche": 4044,
      "TTIP": 4045,
      "gilt": 4046,
      "Verfügung": 4047,
      "Vergangenheit": 4048,
      "Bedeutung": 4049,
      "Tränengas": 4050,
      "zwölf": 4051,
      "Bundesregierung": 4052,
      "Quartiersbüro": 4053,
      "$.": 4054,
      "1c": 4055,
      "1000": 4056,
      "2000": 4057,
      "43": 4058,
      "46": 4059,
      "70": 4060,
      "74": 4061,
      "Ad": 4062,
      "Agen": 4063,
      "Abt": 4064,
      "Adam": 4065,
      "ABC": 4066,
      "A1c": 4067,
      "Bein": 4068,
      "Bri": 4069,
      "Base": 4070,
      "Bachel": 4071,
      "Cir": 4072,
      "Chal": 4073,
      "Coll": 4074,
      "CNN": 4075,
      "CBS": 4076,
      "DF": 4077,
      "Deng": 4078,
      "Eben": 4079,
      "Eis": 4080,
      "Erei": 4081,
      "Ehe": 4082,
      "Etw": 4083,
      "Fü": 4084,
      "Fur": 4085,
      "Fra": 4086,
      "Fut": 4087,
      "Fiel": 4088,
      "Fort": 4089,
      "Feld": 4090,
      "Fünf": 4091,
      "Ga": 4092,
      "Gö": 4093,
      "Gor": 4094,
      "Gol": 4095,
      "Get": 4096,
      "Gast": 4097,
      "Großen": 4098,
      "Hau": 4099,
      "Har": 4100,
      "Hot": 4101,
      "Händ": 4102,
      "Hoff": 4103,
      "Hamil": 4104,
      "Haltung": 4105,
      "Io": 4106,
      "Ibra": 4107,
      "Ja": 4108,
      "Jed": 4109,
      "Jones": 4110,
      "Ky": 4111,
      "Kauf": 4112,
      "Klin": 4113,
      "Kaut": 4114,
      "Käu": 4115,
      "Kreis": 4116,
      "Kerl": 4117,
      "Licht": 4118,
      "Länder": 4119,
      "Ländern": 4120,
      "Mat": 4121,
      "Minn": 4122,
      "Messe": 4123,
      "Na": 4124,
      "Nu": 4125,
      "Nun": 4126,
      "Net": 4127,
      "Nord": 4128,
      "Nationen": 4129,
      "OR": 4130,
      "Out": 4131,
      "Offen": 4132,
      "PC": 4133,
      "Pal": 4134,
      "Papier": 4135,
      "Position": 4136,
      "Rein": 4137,
      "Ranger": 4138,
      "Rande": 4139,
      "Sk": 4140,
      "Sw": 4141,
      "Sach": 4142,
      "Sil": 4143,
      "Sinn": 4144,
      "TU": 4145,
      "Ta": 4146,
      "Tro": 4147,
      "Tier": 4148,
      "Tenn": 4149,
      "Than": 4150,
      "Tack": 4151,
      "Tabe": 4152,
      "Tony": 4153,
      "Tausende": 4154,
      "UK": 4155,
      "UPS": 4156,
      "Vie": 4157,
      "Van": 4158,
      "Wende": 4159,
      "Wandel": 4160,
      "Zag": 4161,
      "akte": 4162,
      "bi": 4163,
      "bill": 4164,
      "bart": 4165,
      "buch": 4166,
      "bay": 4167,
      "baut": 4168,
      "börsen": 4169,
      "dy": 4170,
      "drau": 4171,
      "dominiert": 4172,
      "ec": 4173,
      "ez": 4174,
      "fas": 4175,
      "fach": 4176,
      "flich": 4177,
      "ftet": 4178,
      "fmeter": 4179,
      "gliche": 4180,
      "gnet": 4181,
      "hs": 4182,
      "higen": 4183,
      "hart": 4184,
      "himovic": 4185,
      "histor": 4186,
      "ialen": 4187,
      "iums": 4188,
      "kar": 4189,
      "kos": 4190,
      "kunden": 4191,
      "lungs": 4192,
      "lesen": 4193,
      "länder": 4194,
      "lobte": 4195,
      "my": 4196,
      "met": 4197,
      "mott": 4198,
      "nt": 4199,
      "nder": 4200,
      "ogramm": 4201,
      "pul": 4202,
      "pfl": 4203,
      "preisen": 4204,
      "psych": 4205,
      "rische": 4206,
      "rgi": 4207,
      "riere": 4208,
      "sü": 4209,
      "siv": 4210,
      "sweise": 4211,
      "sank": 4212,
      "ssystem": 4213,
      "sächlich": 4214,
      "shere": 4215,
      "tt": 4216,
      "tin": 4217,
      "tie": 4218,
      "tal": 4219,
      "tat": 4220,
      "tliche": 4221,
      "vö": 4222,
      "van": 4223,
      "var": 4224,
      "vater": 4225,
      "wor": 4226,
      "wunder": 4227,
      "wuchs": 4228,
      "xim": 4229,
      "yah": 4230,
      "zins": 4231,
      "zerst": 4232,
      "Änder": 4233,
      "äte": 4234,
      "äle": 4235,
      "ähn": 4236,
      "ächt": 4237,
      "öen": 4238,
      "erne": 4239,
      "erischen": 4240,
      "erreich": 4241,
      "erve": 4242,
      "chner": 4243,
      "inen": 4244,
      "ines": 4245,
      "inne": 4246,
      "inzwischen": 4247,
      "inform": 4248,
      "integr": 4249,
      "iegen": 4250,
      "unfall": 4251,
      "stad": 4252,
      "stopp": 4253,
      "stritt": 4254,
      "stud": 4255,
      "stritten": 4256,
      "anke": 4257,
      "anyah": 4258,
      "eindeut": 4259,
      "eingestellt": 4260,
      "ged": 4261,
      "gesen": 4262,
      "gehalten": 4263,
      "gezeigt": 4264,
      "techn": 4265,
      "ons": 4266,
      "ondent": 4267,
      "aub": 4268,
      "schau": 4269,
      "diejenigen": 4270,
      "denk": 4271,
      "denkt": 4272,
      "dennoch": 4273,
      "alz": 4274,
      "ales": 4275,
      "alkohol": 4276,
      "asani": 4277,
      "iti": 4278,
      "iter": 4279,
      "tende": 4280,
      "org": 4281,
      "zustellen": 4282,
      "atisch": 4283,
      "atil": 4284,
      "atischen": 4285,
      "esot": 4286,
      "llow": 4287,
      "ungsp": 4288,
      "tert": 4289,
      "beenden": 4290,
      "bezahl": 4291,
      "bekam": 4292,
      "bewohner": 4293,
      "bewus": 4294,
      "bestimmte": 4295,
      "see": 4296,
      "seum": 4297,
      "setzung": 4298,
      "separ": 4299,
      "verhin": 4300,
      "verletz": 4301,
      "verzeich": 4302,
      "verteilt": 4303,
      "aufnehmen": 4304,
      "ierter": 4305,
      "igin": 4306,
      "lev": 4307,
      "imme": 4308,
      "licher": 4309,
      "isieren": 4310,
      "umfassen": 4311,
      "umstritten": 4312,
      "entstanden": 4313,
      "nel": 4314,
      "reb": 4315,
      "reden": 4316,
      "reduziert": 4317,
      "tzungen": 4318,
      "oma": 4319,
      "omer": 4320,
      "ausgewähl": 4321,
      "fürchten": 4322,
      "steuer": 4323,
      "steuropa": 4324,
      "andauern": 4325,
      "els": 4326,
      "ray": 4327,
      "Stan": 4328,
      "sichert": 4329,
      "weite": 4330,
      "weißen": 4331,
      "spür": 4332,
      "wirken": 4333,
      "warnt": 4334,
      "ffekt": 4335,
      "haber": 4336,
      "hafte": 4337,
      "haftet": 4338,
      "sogenann": 4339,
      "sobald": 4340,
      "reicht": 4341,
      "reiche": 4342,
      "überhaupt": 4343,
      "übernimmt": 4344,
      "übergewicht": 4345,
      "Vers": 4346,
      "Verbesser": 4347,
      "Verfahren": 4348,
      "Verhält": 4349,
      "Verbrauch": 4350,
      "iends": 4351,
      "Anlauf": 4352,
      "Anleihen": 4353,
      "Schü": 4354,
      "Schon": 4355,
      "Schle": 4356,
      "Schuss": 4357,
      "Schengen": 4358,
      "änge": 4359,
      "Inner": 4360,
      "Infl": 4361,
      "Inform": 4362,
      "Inseln": 4363,
      "Unser": 4364,
      "linie": 4365,
      "nachdenken": 4366,
      "Erd": 4367,
      "Erwartungen": 4368,
      "abger": 4369,
      "abgeschlossen": 4370,
      "abhäng": 4371,
      "Bewält": 4372,
      "Beziehung": 4373,
      "Einkauf": 4374,
      "Einwohner": 4375,
      "Einlad": 4376,
      "Gelegen": 4377,
      "Spa": 4378,
      "Spitzen": 4379,
      "ika": 4380,
      "schloss": 4381,
      "schlimm": 4382,
      "Reus": 4383,
      "Refer": 4384,
      "davor": 4385,
      "klasse": 4386,
      "Dermott": 4387,
      "Gruppen": 4388,
      "glück": 4389,
      "komme": 4390,
      "komment": 4391,
      "ünglich": 4392,
      "öner": 4393,
      "önlichkeit": 4394,
      "ären": 4395,
      "unterlassen": 4396,
      "unterschied": 4397,
      "zem": 4398,
      "zedon": 4399,
      "halbe": 4400,
      "add": 4401,
      "ations": 4402,
      "uell": 4403,
      "ives": 4404,
      "ranz": 4405,
      "seiter": 4406,
      "arts": 4407,
      "gangs": 4408,
      "durchgeführt": 4409,
      "gelten": 4410,
      "ährung": 4411,
      "Vorfall": 4412,
      "ierenden": 4413,
      "Unterricht": 4414,
      "endgült": 4415,
      "gewähr": 4416,
      "bisschen": 4417,
      "gebung": 4418,
      "Ausnahme": 4419,
      "Ted": 4420,
      "ula": 4421,
      "teils": 4422,
      "Arbei": 4423,
      "chef": 4424,
      "icket": 4425,
      "weiteres": 4426,
      "Spielern": 4427,
      "ford": 4428,
      "Alter": 4429,
      "Also": 4430,
      "leib": 4431,
      "Nep": 4432,
      "Netz": 4433,
      "konferenz": 4434,
      "Deutschen": 4435,
      "hohe": 4436,
      "hofft": 4437,
      "rior": 4438,
      "Bereit": 4439,
      "Zug": 4440,
      "Aufent": 4441,
      "Aufwand": 4442,
      "rücken": 4443,
      "mögen": 4444,
      "öffnen": 4445,
      "See": 4446,
      "Sechs": 4447,
      "Seven": 4448,
      "astle": 4449,
      "gemel": 4450,
      "gemeinen": 4451,
      "gemessen": 4452,
      "fahrende": 4453,
      "aktiv": 4454,
      "Million": 4455,
      "ört": 4456,
      "programm": 4457,
      "okal": 4458,
      "traf": 4459,
      "autom": 4460,
      "Manchmal": 4461,
      "Play": 4462,
      "ministers": 4463,
      "seitdem": 4464,
      "Gesicht": 4465,
      "Wege": 4466,
      "Dax": 4467,
      "angesehen": 4468,
      "folgte": 4469,
      "meist": 4470,
      "starb": 4471,
      "starken": 4472,
      "2007": 4473,
      "sprünglich": 4474,
      "trennen": 4475,
      "zurückzu": 4476,
      "Abgeord": 4477,
      "Char": 4478,
      "geschie": 4479,
      "geschichte": 4480,
      "Region": 4481,
      "izieren": 4482,
      "kauft": 4483,
      "ards": 4484,
      "begeister": 4485,
      "lands": 4486,
      "Beim": 4487,
      "erstmals": 4488,
      "Mindestens": 4489,
      "treue": 4490,
      "Überprü": 4491,
      "Grenzwerte": 4492,
      "Final": 4493,
      "Finale": 4494,
      "Lebens": 4495,
      "Blut": 4496,
      "Klasse": 4497,
      "Karriere": 4498,
      "Punkten": 4499,
      "großes": 4500,
      "kurs": 4501,
      "kurzem": 4502,
      "Fehler": 4503,
      "Fellow": 4504,
      "Hämo": 4505,
      "gehörte": 4506,
      "Hersteller": 4507,
      "Origin": 4508,
      "kostet": 4509,
      "getan": 4510,
      "stehenden": 4511,
      "Amy": 4512,
      "Jeb": 4513,
      "Produzenten": 4514,
      "College": 4515,
      "quenzen": 4516,
      "quote": 4517,
      "Notiz": 4518,
      "sicherlich": 4519,
      "sicherheit": 4520,
      "Beteil": 4521,
      "Glauben": 4522,
      "Jähriger": 4523,
      "richtige": 4524,
      "Medic": 4525,
      "Zellen": 4526,
      "offensichtlich": 4527,
      "erwarteten": 4528,
      "verteidig": 4529,
      "hilft": 4530,
      "Verletzte": 4531,
      "Persönlichkeit": 4532,
      "Besitz": 4533,
      "Channel": 4534,
      "höherer": 4535,
      "Flüchtlingskrise": 4536,
      "Design": 4537,
      "fällig": 4538,
      "hauptsächlich": 4539,
      "unterstützt": 4540,
      "Gericht": 4541,
      "jährige": 4542,
      "erschienen": 4543,
      "schlecht": 4544,
      "amerikan": 4545,
      "Montagabend": 4546,
      "Friends": 4547,
      "Pflege": 4548,
      "Pfalz": 4549,
      "Treffer": 4550,
      "voller": 4551,
      "schneller": 4552,
      "wichtigste": 4553,
      "McDermott": 4554,
      "ständigen": 4555,
      "außerdem": 4556,
      "platz": 4557,
      "ativen": 4558,
      "Kurz": 4559,
      "Richard": 4560,
      "bildung": 4561,
      "laufen": 4562,
      "aturen": 4563,
      "Investoren": 4564,
      "Elfmeter": 4565,
      "Linz": 4566,
      "Rückkehr": 4567,
      "kritisiert": 4568,
      "ehemaligen": 4569,
      "Sicherheits": 4570,
      "Shows": 4571,
      "bietet": 4572,
      "dritte": 4573,
      "ölker": 4574,
      "Innings": 4575,
      "globin": 4576,
      "Gesetze": 4577,
      "kündigt": 4578,
      "Münchner": 4579,
      "positiv": 4580,
      "bedeuten": 4581,
      "Außenseiter": 4582,
      "erzählt": 4583,
      "Modell": 4584,
      "unserem": 4585,
      "zunehmend": 4586,
      "Passau": 4587,
      "Reserve": 4588,
      "udis": 4589,
      "erhöht": 4590,
      "einzustellen": 4591,
      "duzieren": 4592,
      "Gespräch": 4593,
      "präsentiert": 4594,
      "Staatsan": 4595,
      "Amerikaner": 4596,
      "verwendet": 4597,
      "verschiedenen": 4598,
      "entwickeln": 4599,
      "reagiert": 4600,
      "Angebote": 4601,
      "Immun": 4602,
      "Leistungen": 4603,
      "Büro": 4604,
      "Durchschnit": 4605,
      "Foodwatch": 4606,
      "Freihandels": 4607,
      "losigkeit": 4608,
      "wendig": 4609,
      "Gemeinde": 4610,
      "Gründen": 4611,
      "läss": 4612,
      "Jugendliche": 4613,
      "Bisher": 4614,
      "Heimat": 4615,
      "Jobs": 4616,
      "Korresp": 4617,
      "Wilshere": 4618,
      "droht": 4619,
      "renten": 4620,
      "südlich": 4621,
      "welche": 4622,
      "gebeten": 4623,
      "genannt": 4624,
      "wechseln": 4625,
      "Nachbarn": 4626,
      "Polizist": 4627,
      "langfristig": 4628,
      "Möglichkeiten": 4629,
      "Premierministers": 4630,
      "Großbritanniens": 4631,
      "Morgan": 4632,
      "Rundfunk": 4633,
      "Saludis": 4634,
      "burger": 4635,
      "österreichischen": 4636,
      "Stadion": 4637,
      "Verfassungs": 4638,
      "Technologie": 4639,
      "Christ": 4640,
      "Emden": 4641,
      "Google": 4642,
      "Know": 4643,
      "Kilometer": 4644,
      "Kilogramm": 4645,
      "Turn": 4646,
      "gänge": 4647,
      "kürzlich": 4648,
      "entfernt": 4649,
      "Konkurr": 4650,
      "Konkurrenten": 4651,
      "interessiert": 4652,
      "Schiedsrichter": 4653,
      "Liga": 4654,
      "Phase": 4655,
      "Piloten": 4656,
      "froh": 4657,
      "angeblich": 4658,
      "verständlich": 4659,
      "Streit": 4660,
      "Jahrzehnt": 4661,
      "Gebäude": 4662,
      "Gefäng": 4663,
      "Gewichts": 4664,
      "Untersuchung": 4665,
      "Archite": 4666,
      "schädigung": 4667,
      "veröffentlichten": 4668,
      "diskutieren": 4669,
      "medizinischen": 4670,
      "Dougl": 4671,
      "Green": 4672,
      "Gleich": 4673,
      "Hunderte": 4674,
      "Justin": 4675,
      "Kee": 4676,
      "Saudi": 4677,
      "hundert": 4678,
      "wählen": 4679,
      "investiert": 4680,
      "spiegelt": 4681,
      "Verkaufs": 4682,
      "Integration": 4683,
      "herapie": 4684,
      "Stephan": 4685,
      "private": 4686,
      "Hospizhilfe": 4687,
      "Entwicklung": 4688,
      "Amts": 4689,
      "Juni": 4690,
      "Lastwagen": 4691,
      "Nahrungs": 4692,
      "Operation": 4693,
      "SPD": 4694,
      "Wernstein": 4695,
      "Willkommen": 4696,
      "nannte": 4697,
      "äume": 4698,
      "erfüllen": 4699,
      "strom": 4700,
      "republikanischen": 4701,
      "vorbereitet": 4702,
      "Größe": 4703,
      "landesweit": 4704,
      "Engagement": 4705,
      "läuft": 4706,
      "Websi": 4707,
      "Frankfurt": 4708,
      "Studentenwohnhei": 4709,
      "militärische": 4710,
      "Industrie": 4711,
      "Bamberg": 4712,
      "Canning": 4713,
      "Cavani": 4714,
      "GOP": 4715,
      "Kultur": 4716,
      "Lorax": 4717,
      "Zwischen": 4718,
      "falsch": 4719,
      "attrakt": 4720,
      "mitglied": 4721,
      "entschieden": 4722,
      "vorsichtig": 4723,
      "Verhandlungen": 4724,
      "Gehirn": 4725,
      "gebildet": 4726,
      "Umständen": 4727,
      "Bundeskanzlerin": 4728,
      "Sympt": 4729,
      "Luxus": 4730,
      "Glencore": 4731,
      "Kommission": 4732,
      "Karlsruhe": 4733,
      "Korridor": 4734,
      "vertrauenswürdig": 4735,
      "Dienstleistungen": 4736,
      "Bachelor": 4737,
      "Circus": 4738,
      "Chalasani": 4739,
      "DFB": 4740,
      "Ereig": 4741,
      "Etwa": 4742,
      "Gorill": 4743,
      "Gold": 4744,
      "Hamilton": 4745,
      "Iowa": 4746,
      "Ibrahimovic": 4747,
      "Jedoch": 4748,
      "Kyrgi": 4749,
      "Kaution": 4750,
      "Minnesot": 4751,
      "Netanyah": 4752,
      "Rangers": 4753,
      "Tennis": 4754,
      "Thanasi": 4755,
      "Vielleicht": 4756,
      "Zagreb": 4757,
      "draußen": 4758,
      "faszin": 4759,
      "stoppen": 4760,
      "Einladung": 4761,
      "begeistert": 4762,
      "Hämoglobin": 4763,
      "Korrespondent": 4764,
      "Kyrgios": 4765,
      "Netanyahu": 4766,
      "\"-": 4767,
      "%,": 4768,
      ".).": 4769,
      "32": 4770,
      "38": 4771,
      "39": 4772,
      "48": 4773,
      "400": 4774,
      "54": 4775,
      "69": 4776,
      "71": 4777,
      "73": 4778,
      "76": 4779,
      "85": 4780,
      "?\"": 4781,
      "?\",": 4782,
      "Ac": 4783,
      "Ag": 4784,
      "Ak": 4785,
      "Ara": 4786,
      "Abl": 4787,
      "Adi": 4788,
      "Awards": 4789,
      "Bab": 4790,
      "Benz": 4791,
      "CD": 4792,
      "CS": 4793,
      "Cr": 4794,
      "Cent": 4795,
      "Cha": 4796,
      "Cont": 4797,
      "Cald": 4798,
      "Cow": 4799,
      "Centr": 4800,
      "DI": 4801,
      "DL": 4802,
      "DS": 4803,
      "Dor": 4804,
      "Dann": 4805,
      "Drei": 4806,
      "Deil": 4807,
      "Dunde": 4808,
      "Dopp": 4809,
      "East": 4810,
      "FM": 4811,
      "FT": 4812,
      "Fä": 4813,
      "Fri": 4814,
      "Fakt": 4815,
      "Ford": 4816,
      "Fried": 4817,
      "Gaut": 4818,
      "Ganz": 4819,
      "Gou": 4820,
      "Gift": 4821,
      "Gong": 4822,
      "Gumm": 4823,
      "Hen": 4824,
      "Hall": 4825,
      "Hill": 4826,
      "Halle": 4827,
      "Holl": 4828,
      "Hug": 4829,
      "Ira": 4830,
      "Isa": 4831,
      "JD": 4832,
      "Jere": 4833,
      "Kü": 4834,
      "Kab": 4835,
      "Klei": 4836,
      "Kalt": 4837,
      "Kiss": 4838,
      "Köl": 4839,
      "Kanzlerin": 4840,
      "Lö": 4841,
      "Lop": 4842,
      "Lager": 4843,
      "Liter": 4844,
      "Misch": 4845,
      "Mand": 4846,
      "Magen": 4847,
      "Macht": 4848,
      "Mog": 4849,
      "Mord": 4850,
      "Meilen": 4851,
      "Ner": 4852,
      "Nin": 4853,
      "Neil": 4854,
      "Nation": 4855,
      "Nick": 4856,
      "Noten": 4857,
      "Niers": 4858,
      "Nummer": 4859,
      "Ol": 4860,
      "Oder": 4861,
      "Osten": 4862,
      "Okl": 4863,
      "Opp": 4864,
      "Oly": 4865,
      "Pit": 4866,
      "Pol": 4867,
      "Pak": 4868,
      "Phil": 4869,
      "Paar": 4870,
      "RV": 4871,
      "Rie": 4872,
      "Rat": 4873,
      "Rum": 4874,
      "Rel": 4875,
      "Ret": 4876,
      "Rauch": 4877,
      "Russ": 4878,
      "Ramp": 4879,
      "Rub": 4880,
      "Rama": 4881,
      "River": 4882,
      "Raub": 4883,
      "Sum": 4884,
      "Soll": 4885,
      "Suf": 4886,
      "Sache": 4887,
      "Satur": 4888,
      "Sign": 4889,
      "Tot": 4890,
      "Two": 4891,
      "Top": 4892,
      "Täter": 4893,
      "Tiere": 4894,
      "Typ": 4895,
      "Thai": 4896,
      "Vit": 4897,
      "WM": 4898,
      "Wag": 4899,
      "Weil": 4900,
      "Witz": 4901,
      "Wunsch": 4902,
      "Zä": 4903,
      "Zwill": 4904,
      "Zoo": 4905,
      "Zeichen": 4906,
      "avon": 4907,
      "astet": 4908,
      "bs": 4909,
      "bit": 4910,
      "bten": 4911,
      "bom": 4912,
      "bul": 4913,
      "bank": 4914,
      "bahn": 4915,
      "bour": 4916,
      "dt": 4917,
      "dir": 4918,
      "dischen": 4919,
      "em": 4920,
      "ehen": 4921,
      "egal": 4922,
      "earch": 4923,
      "ewell": 4924,
      "fE": 4925,
      "fter": 4926,
      "fil": 4927,
      "fischen": 4928,
      "fers": 4929,
      "fru": 4930,
      "för": 4931,
      "förder": 4932,
      "franz": 4933,
      "gment": 4934,
      "gow": 4935,
      "gäng": 4936,
      "günst": 4937,
      "gno": 4938,
      "greifen": 4939,
      "hängen": 4940,
      "hstoff": 4941,
      "ide": 4942,
      "ient": 4943,
      "ident": 4944,
      "ioren": 4945,
      "jan": 4946,
      "jic": 4947,
      "km": 4948,
      "kal": 4949,
      "kes": 4950,
      "keiner": 4951,
      "kran": 4952,
      "kul": 4953,
      "ksam": 4954,
      "klet": 4955,
      "lam": 4956,
      "log": 4957,
      "laden": 4958,
      "lück": 4959,
      "ländern": 4960,
      "meinem": 4961,
      "moder": 4962,
      "melt": 4963,
      "messe": 4964,
      "nei": 4965,
      "nas": 4966,
      "nor": 4967,
      "ning": 4968,
      "nennen": 4969,
      "nummer": 4970,
      "oden": 4971,
      "oben": 4972,
      "ois": 4973,
      "ool": 4974,
      "pf": 4975,
      "pä": 4976,
      "pre": 4977,
      "preis": 4978,
      "poten": 4979,
      "prakt": 4980,
      "ris": 4981,
      "rauch": 4982,
      "rischen": 4983,
      "ramm": 4984,
      "ssel": 4985,
      "sula": 4986,
      "tur": 4987,
      "tro": 4988,
      "tim": 4989,
      "tack": 4990,
      "toll": 4991,
      "täu": 4992,
      "uz": 4993,
      "ual": 4994,
      "uern": 4995,
      "vs": 4996,
      "via": 4997,
      "vierten": 4998,
      "wes": 4999,
      "wün": 5000,
      "zir": 5001,
      "zog": 5002,
      "ög": 5003,
      "ökon": 5004,
      "ömm": 5005,
      "ügend": 5006,
      "enor": 5007,
      "enster": 5008,
      "enamt": 5009,
      "enlicht": 5010,
      "erster": 5011,
      "erlei": 5012,
      "erlä": 5013,
      "ermö": 5014,
      "ergab": 5015,
      "erbringen": 5016,
      "ergän": 5017,
      "ches": 5018,
      "chirurg": 5019,
      "chines": 5020,
      "inburg": 5021,
      "unabhäng": 5022,
      "eisch": 5023,
      "eignet": 5024,
      "sty": 5025,
      "stir": 5026,
      "stlich": 5027,
      "stol": 5028,
      "stone": 5029,
      "stammen": 5030,
      "stiftung": 5031,
      "aner": 5032,
      "ankl": 5033,
      "anteil": 5034,
      "angeben": 5035,
      "antrag": 5036,
      "anscheinen": 5037,
      "eingehen": 5038,
      "geg": 5039,
      "gesp": 5040,
      "geschä": 5041,
      "gefühl": 5042,
      "gewiesen": 5043,
      "gestartet": 5044,
      "geändert": 5045,
      "geklärt": 5046,
      "ona": 5047,
      "schar": 5048,
      "schung": 5049,
      "schwar": 5050,
      "schien": 5051,
      "schos": 5052,
      "schwe": 5053,
      "schritt": 5054,
      "schock": 5055,
      "deb": 5056,
      "defin": 5057,
      "deuten": 5058,
      "aler": 5059,
      "arische": 5060,
      "undheit": 5061,
      "itman": 5062,
      "iths": 5063,
      "genet": 5064,
      "orfen": 5065,
      "oria": 5066,
      "zugs": 5067,
      "zustimmen": 5068,
      "atow": 5069,
      "ese": 5070,
      "ambu": 5071,
      "berger": 5072,
      "beruf": 5073,
      "berichtet": 5074,
      "berecht": 5075,
      "uren": 5076,
      "uronen": 5077,
      "bele": 5078,
      "beteil": 5079,
      "behör": 5080,
      "betr": 5081,
      "bestra": 5082,
      "behandel": 5083,
      "beantw": 5084,
      "beendet": 5085,
      "seh": 5086,
      "sex": 5087,
      "selt": 5088,
      "sekret": 5089,
      "achsen": 5090,
      "verz": 5091,
      "verzwei": 5092,
      "verhand": 5093,
      "versicher": 5094,
      "verschlossen": 5095,
      "verändern": 5096,
      "verwaltung": 5097,
      "verhaftet": 5098,
      "aufzunehmen": 5099,
      "iero": 5100,
      "ires": 5101,
      "irchen": 5102,
      "leger": 5103,
      "legten": 5104,
      "imin": 5105,
      "immen": 5106,
      "isa": 5107,
      "isierung": 5108,
      "miteinander": 5109,
      "umor": 5110,
      "umfang": 5111,
      "entlich": 5112,
      "entgegen": 5113,
      "enthalten": 5114,
      "entschei": 5115,
      "entstand": 5116,
      "entschied": 5117,
      "enttäu": 5118,
      "neg": 5119,
      "nesty": 5120,
      "rel": 5121,
      "regel": 5122,
      "tzten": 5123,
      "tzlich": 5124,
      "omics": 5125,
      "auspiel": 5126,
      "steck": 5127,
      "elf": 5128,
      "eland": 5129,
      "Stil": 5130,
      "Station": 5131,
      "Stick": 5132,
      "Städ": 5133,
      "Sturm": 5134,
      "Stiftung": 5135,
      "Sturz": 5136,
      "ftware": 5137,
      "wertet": 5138,
      "ussen": 5139,
      "weiz": 5140,
      "weile": 5141,
      "spir": 5142,
      "spont": 5143,
      "spät": 5144,
      "spolitik": 5145,
      "spezial": 5146,
      "sender": 5147,
      "senkung": 5148,
      "menschen": 5149,
      "wirr": 5150,
      "wirkt": 5151,
      "hay": 5152,
      "hail": 5153,
      "haften": 5154,
      "sowohl": 5155,
      "sozial": 5156,
      "reiten": 5157,
      "reiben": 5158,
      "hnte": 5159,
      "übert": 5160,
      "überein": 5161,
      "überze": 5162,
      "überqu": 5163,
      "Verz": 5164,
      "Verletzten": 5165,
      "Vertre": 5166,
      "Vertrag": 5167,
      "Verkäufe": 5168,
      "Veranst": 5169,
      "Angehör": 5170,
      "Anwalt": 5171,
      "Antrag": 5172,
      "Ansichten": 5173,
      "Schwer": 5174,
      "Schall": 5175,
      "Schwe": 5176,
      "Schließ": 5177,
      "Schauspiel": 5178,
      "etics": 5179,
      "Inc": 5180,
      "Infin": 5181,
      "Union": 5182,
      "Ermitt": 5183,
      "Erkrank": 5184,
      "Erfolg": 5185,
      "Erträge": 5186,
      "Erholung": 5187,
      "abgesch": 5188,
      "Bewer": 5189,
      "Bebau": 5190,
      "Befrei": 5191,
      "Befrag": 5192,
      "Eintr": 5193,
      "Einstellung": 5194,
      "Einkäufe": 5195,
      "Ged": 5196,
      "Geheim": 5197,
      "Geflü": 5198,
      "Spann": 5199,
      "Spiele": 5200,
      "iken": 5201,
      "ikte": 5202,
      "Regel": 5203,
      "Rechte": 5204,
      "Reaktion": 5205,
      "igeschos": 5206,
      "herr": 5207,
      "herunter": 5208,
      "Auff": 5209,
      "klass": 5210,
      "wurf": 5211,
      "schaden": 5212,
      "Sieger": 5213,
      "Mitteilung": 5214,
      "Mitbewohner": 5215,
      "jede": 5216,
      "jedem": 5217,
      "ärgert": 5218,
      "unterwegs": 5219,
      "zeiten": 5220,
      "ots": 5221,
      "zellen": 5222,
      "bran": 5223,
      "ossi": 5224,
      "oski": 5225,
      "Fleisch": 5226,
      "ingern": 5227,
      "ingham": 5228,
      "halle": 5229,
      "halts": 5230,
      "grenzen": 5231,
      "lanzen": 5232,
      "landet": 5233,
      "weder": 5234,
      "opfen": 5235,
      "Prozentsatz": 5236,
      "rang": 5237,
      "hingegen": 5238,
      "geld": 5239,
      "gelassen": 5240,
      "fügt": 5241,
      "letztlich": 5242,
      "Vorgehen": 5243,
      "Vormittag": 5244,
      "ierender": 5245,
      "Enders": 5246,
      "sters": 5247,
      "sterben": 5248,
      "anderes": 5249,
      "Unterschied": 5250,
      "Unternehmer": 5251,
      "2020": 5252,
      "endlich": 5253,
      "endums": 5254,
      "uchten": 5255,
      "rauen": 5256,
      "gewün": 5257,
      "geworfen": 5258,
      "gewachsen": 5259,
      "gebühr": 5260,
      "Aussicht": 5261,
      "Tegel": 5262,
      "ries": 5263,
      "Nachfrage": 5264,
      "zenz": 5265,
      "Mengen": 5266,
      "darin": 5267,
      "ppt": 5268,
      "kannt": 5269,
      "teilten": 5270,
      "Ark": 5271,
      "Arm": 5272,
      "Arzt": 5273,
      "chez": 5274,
      "selmann": 5275,
      "icks": 5276,
      "Umstruktur": 5277,
      "Umklei": 5278,
      "zweimal": 5279,
      "Wirkung": 5280,
      "stellungen": 5281,
      "Spiels": 5282,
      "olide": 5283,
      "Alhay": 5284,
      "Trent": 5285,
      "Trends": 5286,
      "leid": 5287,
      "leisten": 5288,
      "besorgt": 5289,
      "gift": 5290,
      "ktes": 5291,
      "hoffe": 5292,
      "Berichten": 5293,
      "Zuvor": 5294,
      "Zugang": 5295,
      "lädt": 5296,
      "führung": 5297,
      "nissen": 5298,
      "allel": 5299,
      "finanz": 5300,
      "finale": 5301,
      "acker": 5302,
      "hören": 5303,
      "Segment": 5304,
      "Zeitung": 5305,
      "dium": 5306,
      "üss": 5307,
      "üsse": 5308,
      "aktionen": 5309,
      "iakos": 5310,
      "deutscher": 5311,
      "Theater": 5312,
      "flucht": 5313,
      "arbeiter": 5314,
      "arbeitete": 5315,
      "Roy": 5316,
      "Rote": 5317,
      "Rocken": 5318,
      "Rohstoff": 5319,
      "sonst": 5320,
      "barkeit": 5321,
      "probe": 5322,
      "prozent": 5323,
      "profit": 5324,
      "strich": 5325,
      "striert": 5326,
      "traten": 5327,
      "trafen": 5328,
      "zeitig": 5329,
      "Student": 5330,
      "Mangel": 5331,
      "Management": 5332,
      "Platt": 5333,
      "mark": 5334,
      "ohle": 5335,
      "macher": 5336,
      "Maßnahmen": 5337,
      "iertes": 5338,
      "Mannes": 5339,
      "neuesten": 5340,
      "Mete": 5341,
      "angeklagt": 5342,
      "angekündigt": 5343,
      "attle": 5344,
      "Priv": 5345,
      "Press": 5346,
      "Sozi": 5347,
      "Software": 5348,
      "2006": 5349,
      "Autor": 5350,
      "Autom": 5351,
      "Autoren": 5352,
      "sprache": 5353,
      "häuser": 5354,
      "trin": 5355,
      "tragt": 5356,
      "Abbau": 5357,
      "Chase": 5358,
      "geschehen": 5359,
      "Wohnraum": 5360,
      "lose": 5361,
      "wichtigen": 5362,
      "wichtiger": 5363,
      "Straf": 5364,
      "Straft": 5365,
      "öffentlichen": 5366,
      "Leiden": 5367,
      "Weiter": 5368,
      "Große": 5369,
      "Großhändler": 5370,
      "schef": 5371,
      "verlassen": 5372,
      "Krank": 5373,
      "Krans": 5374,
      "Minen": 5375,
      "Minuten": 5376,
      "Grenzz": 5377,
      "Lambs": 5378,
      "Mrs": 5379,
      "mpiakos": 5380,
      "zahlreiche": 5381,
      "gestiegen": 5382,
      "beln": 5383,
      "belastet": 5384,
      "Blair": 5385,
      "Klein": 5386,
      "Punt": 5387,
      "eigenes": 5388,
      "rechnet": 5389,
      "wohnt": 5390,
      "wohnungen": 5391,
      "Herbst": 5392,
      "Führungs": 5393,
      "ministeriums": 5394,
      "Amnesty": 5395,
      "Jeavon": 5396,
      "ogenetics": 5397,
      "gesellschaft": 5398,
      "Count": 5399,
      "Hearts": 5400,
      "Wieder": 5401,
      "verbunden": 5402,
      "änderten": 5403,
      "Notstand": 5404,
      "Notaufnahme": 5405,
      "Schluss": 5406,
      "Schlüssel": 5407,
      "Betr": 5408,
      "Glossi": 5409,
      "Kommun": 5410,
      "tlicher": 5411,
      "strafe": 5412,
      "straße": 5413,
      "schweren": 5414,
      "lette": 5415,
      "zentren": 5416,
      "zentrale": 5417,
      "formul": 5418,
      "Fahren": 5419,
      "stimmt": 5420,
      "einzel": 5421,
      "onders": 5422,
      "schwäch": 5423,
      "Interview": 5424,
      "Marktanteil": 5425,
      "meint": 5426,
      "chteten": 5427,
      "stände": 5428,
      "gesunken": 5429,
      "gesundheit": 5430,
      "betroffen": 5431,
      "betrifft": 5432,
      "Geschichten": 5433,
      "Breit": 5434,
      "Brand": 5435,
      "Train": 5436,
      "eisterung": 5437,
      "ansas": 5438,
      "gelegen": 5439,
      "gelebt": 5440,
      "schnei": 5441,
      "ettleib": 5442,
      "Sports": 5443,
      "Sportwagen": 5444,
      "ationaler": 5445,
      "Entscheidungen": 5446,
      "Chefökon": 5447,
      "Besonders": 5448,
      "Teilnehmer": 5449,
      "Unterstütz": 5450,
      "Gerü": 5451,
      "Pep": 5452,
      "Ursprünglich": 5453,
      "erlitt": 5454,
      "erschossen": 5455,
      "rechts": 5456,
      "rechtlichen": 5457,
      "Grundstück": 5458,
      "Gene": 5459,
      "Pfund": 5460,
      "ockt": 5461,
      "blicken": 5462,
      "McDonnell": 5463,
      "McKee": 5464,
      "ahoma": 5465,
      "modell": 5466,
      "moschee": 5467,
      "musste": 5468,
      "utzte": 5469,
      "ständige": 5470,
      "Angesichts": 5471,
      "Filialen": 5472,
      "ologische": 5473,
      "British": 5474,
      "Kurs": 5475,
      "Opel": 5476,
      "Richterin": 5477,
      "Sender": 5478,
      "Senioren": 5479,
      "Warrior": 5480,
      "solche": 5481,
      "Innenstadt": 5482,
      "Freundin": 5483,
      "Lizenz": 5484,
      "Linie": 5485,
      "Tory": 5486,
      "kritisierte": 5487,
      "lernen": 5488,
      "fehlen": 5489,
      "Mitglieds": 5490,
      "Chinatow": 5491,
      "afög": 5492,
      "volle": 5493,
      "Vertrauen": 5494,
      "Begeisterung": 5495,
      "globale": 5496,
      "besondere": 5497,
      "versuche": 5498,
      "Strategen": 5499,
      "ligisten": 5500,
      "notwendig": 5501,
      "positas": 5502,
      "positive": 5503,
      "eröffnen": 5504,
      "Auftakt": 5505,
      "ständiger": 5506,
      "Camerons": 5507,
      "Research": 5508,
      "wachsen": 5509,
      "wachstum": 5510,
      "sprozess": 5511,
      "serbische": 5512,
      "durchschnittliche": 5513,
      "Muster": 5514,
      "Nichtrauch": 5515,
      "mächt": 5516,
      "weltweit": 5517,
      "einfach": 5518,
      "verwendeten": 5519,
      "verschieden": 5520,
      "verschiedene": 5521,
      "aufgegriffen": 5522,
      "Behandlungen": 5523,
      "Markus": 5524,
      "Market": 5525,
      "Markoski": 5526,
      "Roman": 5527,
      "Sanchez": 5528,
      "wendung": 5529,
      "betonen": 5530,
      "bezeichnet": 5531,
      "Gemeinder": 5532,
      "Rechtsh": 5533,
      "Gründe": 5534,
      "Angeklagte": 5535,
      "Zusammenbruch": 5536,
      "Disharmon": 5537,
      "Gauselmann": 5538,
      "Heim": 5539,
      "Kirchen": 5540,
      "Nationalspieler": 5541,
      "verpflich": 5542,
      "Nachbarland": 5543,
      "langfristige": 5544,
      "Blackstone": 5545,
      "Schlagmann": 5546,
      "sätzlich": 5547,
      "Waffenmesse": 5548,
      "Kapital": 5549,
      "Liebes": 5550,
      "Liefer": 5551,
      "Perspekt": 5552,
      "Twitter": 5553,
      "widerspiegelt": 5554,
      "Stadler": 5555,
      "wirtschaftlichen": 5556,
      "Einzelhändler": 5557,
      "gebiet": 5558,
      "gebieten": 5559,
      "Pressekonferenz": 5560,
      "Innenministerin": 5561,
      "Branchen": 5562,
      "Branche": 5563,
      "Chris": 5564,
      "drückt": 5565,
      "hire": 5566,
      "kümm": 5567,
      "kümmer": 5568,
      "näher": 5569,
      "indest": 5570,
      "steigenden": 5571,
      "Erstaufnahme": 5572,
      "Einwanderung": 5573,
      "jeweiligen": 5574,
      "konzentriert": 5575,
      "General": 5576,
      "Ultraschallwellen": 5577,
      "Group": 5578,
      "Jose": 5579,
      "flächen": 5580,
      "fläche": 5581,
      "zitiert": 5582,
      "erinnert": 5583,
      "voraussichtlich": 5584,
      "Andrew": 5585,
      "Ernährung": 5586,
      "Archä": 5587,
      "Prinzip": 5588,
      "Reihenhaus": 5589,
      "veröffentlichte": 5590,
      "doppelte": 5591,
      "Verteidigung": 5592,
      "verursachen": 5593,
      "Landeshaupt": 5594,
      "Kandidatin": 5595,
      "Bremen": 5596,
      "Kader": 5597,
      "Matthi": 5598,
      "Tomsula": 5599,
      "empf": 5600,
      "politische": 5601,
      "täglich": 5602,
      "tötete": 5603,
      "erwähnt": 5604,
      "zusätzliche": 5605,
      "beruhigen": 5606,
      "verringer": 5607,
      "verringern": 5608,
      "George": 5609,
      "besitzer": 5610,
      "ström": 5611,
      "Organisation": 5612,
      "Organisationen": 5613,
      "Europäische": 5614,
      "Arbeitsplätze": 5615,
      "mittlerweile": 5616,
      "Kartoffeln": 5617,
      "Botschaft": 5618,
      "Block": 5619,
      "Dreh": 5620,
      "Langzeit": 5621,
      "SAP": 5622,
      "Wiener": 5623,
      "Zyklus": 5624,
      "brochen": 5625,
      "conomics": 5626,
      "feier": 5627,
      "hieß": 5628,
      "kabin": 5629,
      "krieg": 5630,
      "nütz": 5631,
      "partner": 5632,
      "erheben": 5633,
      "australischen": 5634,
      "bemerken": 5635,
      "beobachtet": 5636,
      "sperrt": 5637,
      "Verkehrs": 5638,
      "Protest": 5639,
      "Schachclub": 5640,
      "Erfahrungen": 5641,
      "absolut": 5642,
      "Griffiths": 5643,
      "Stellung": 5644,
      "Plakat": 5645,
      "großartige": 5646,
      "Betriebssystem": 5647,
      "Finanzmärkte": 5648,
      "beschleunigen": 5649,
      "traditionellen": 5650,
      "Abstand": 5651,
      "Brüssel": 5652,
      "Capewell": 5653,
      "Förderung": 5654,
      "Melbour": 5655,
      "Pädop": 5656,
      "Renditen": 5657,
      "Termin": 5658,
      "Tiefdruck": 5659,
      "Whitman": 5660,
      "nötig": 5661,
      "traurig": 5662,
      "bestätigte": 5663,
      "verneur": 5664,
      "Gegner": 5665,
      "Geschäfte": 5666,
      "Reporter": 5667,
      "Außerdem": 5668,
      "Album": 5669,
      "Altepost": 5670,
      "finanzielle": 5671,
      "Manege": 5672,
      "Bundesliga": 5673,
      "Häftling": 5674,
      "Glasgow": 5675,
      "erschrecken": 5676,
      "niedriger": 5677,
      "Favorit": 5678,
      "jüngsten": 5679,
      "Wissenschaftler": 5680,
      "Update": 5681,
      "Abteilung": 5682,
      "Baseman": 5683,
      "Furla": 5684,
      "Future": 5685,
      "Götze": 5686,
      "Händler": 5687,
      "Käufer": 5688,
      "Sky": 5689,
      "Silvia": 5690,
      "TUC": 5691,
      "Taschen": 5692,
      "Wendel": 5693,
      "völlig": 5694,
      "wunderbar": 5695,
      "Änderungen": 5696,
      "erneut": 5697,
      "erreichte": 5698,
      "eindeutig": 5699,
      "gesendet": 5700,
      "bewusst": 5701,
      "verhindern": 5702,
      "Verbesserung": 5703,
      "Verhältnis": 5704,
      "Verbraucher": 5705,
      "Schüler": 5706,
      "Inflation": 5707,
      "Erdbe": 5708,
      "Bewältigung": 5709,
      "Referendums": 5710,
      "Arbeiten": 5711,
      "Nepal": 5712,
      "Bereitschaft": 5713,
      "gemeldet": 5714,
      "automat": 5715,
      "zurückzukehren": 5716,
      "Überprüfung": 5717,
      "Fellows": 5718,
      "Beteiligung": 5719,
      "Rundfunkgebühr": 5720,
      "Turnhallen": 5721,
      "Konkurrenz": 5722,
      "Gefängnis": 5723,
      "Gewichtsverlust": 5724,
      "Symptome": 5725,
      "Minnesota": 5726,
      "Adipositas": 5727,
      "Caldiero": 5728,
      "Central": 5729,
      "DIfE": 5730,
      "Deila": 5731,
      "Dundee": 5732,
      "Doppel": 5733,
      "EastEnders": 5734,
      "FTSE": 5735,
      "Friday": 5736,
      "Gautier": 5737,
      "Gouverneur": 5738,
      "Gongoll": 5739,
      "Gummigeschos": 5740,
      "Hillary": 5741,
      "Hughes": 5742,
      "Irak": 5743,
      "Isaac": 5744,
      "Jeremy": 5745,
      "Kaltfront": 5746,
      "Lopez": 5747,
      "Mischung": 5748,
      "Mandat": 5749,
      "Mogul": 5750,
      "Nerven": 5751,
      "Ninja": 5752,
      "Niersbach": 5753,
      "Oklahoma": 5754,
      "Olympiakos": 5755,
      "RVL": 5756,
      "Rampenlicht": 5757,
      "Sufjan": 5758,
      "Saturn": 5759,
      "Vitam": 5760,
      "bulenzen": 5761,
      "französ": 5762,
      "identif": 5763,
      "pret": 5764,
      "erläuter": 5765,
      "chinesischen": 5766,
      "stirbt": 5767,
      "anscheinend": 5768,
      "beteiligten": 5769,
      "sekretär": 5770,
      "spontan": 5771,
      "Schallwellen": 5772,
      "Bebauungsp": 5773,
      "Eintracht": 5774,
      "Umkleide": 5775,
      "Rockenhausen": 5776,
      "Sozialen": 5777,
      "Jeavons": 5778,
      "Glossip": 5779,
      "Chinatown": 5780,
      "Rechtshänder": 5781,
      "Disharmonie": 5782,
      "kümmern": 5783,
      "Matthias": 5784,
      "Melbourne": 5785,
      "Gummigeschosse": 5786,
      "$,": 5787,
      "(\"": 5788,
      "-,": 5789,
      "34": 5790,
      "47": 5791,
      "4000": 5792,
      "59": 5793,
      "61": 5794,
      "65": 5795,
      "66": 5796,
      "67": 5797,
      "600": 5798,
      "82": 5799,
      "89": 5800,
      "900": 5801,
      "AT": 5802,
      "Ate": 5803,
      "Air": 5804,
      "Adr": 5805,
      "Alex": 5806,
      "BV": 5807,
      "Ba": 5808,
      "Bal": 5809,
      "Blei": 5810,
      "Bör": 5811,
      "Balen": 5812,
      "Bade": 5813,
      "Boss": 5814,
      "Brücken": 5815,
      "Bingham": 5816,
      "Bafög": 5817,
      "CE": 5818,
      "Ce": 5819,
      "Can": 5820,
      "Cam": 5821,
      "Cass": 5822,
      "City": 5823,
      "Class": 5824,
      "Clev": 5825,
      "DA": 5826,
      "DW": 5827,
      "Du": 5828,
      "Dan": 5829,
      "Dur": 5830,
      "Day": 5831,
      "Dok": 5832,
      "Dauer": 5833,
      "Dutz": 5834,
      "Düssel": 5835,
      "Döner": 5836,
      "Et": 5837,
      "Emp": 5838,
      "Elekt": 5839,
      "Economics": 5840,
      "FA": 5841,
      "FL": 5842,
      "FW": 5843,
      "Fei": 5844,
      "Fund": 5845,
      "Fün": 5846,
      "Fast": 5847,
      "Frieden": 5848,
      "Ferien": 5849,
      "Fenster": 5850,
      "Gy": 5851,
      "Gä": 5852,
      "Git": 5853,
      "Gere": 5854,
      "Gym": 5855,
      "HA": 5856,
      "HC": 5857,
      "Hé": 5858,
      "Hein": 5859,
      "Has": 5860,
      "Hir": 5861,
      "Hig": 5862,
      "Haben": 5863,
      "Hard": 5864,
      "Heinz": 5865,
      "Hessen": 5866,
      "Haar": 5867,
      "Horg": 5868,
      "Hadd": 5869,
      "Ian": 5870,
      "Ill": 5871,
      "Ionen": 5872,
      "Jin": 5873,
      "Jam": 5874,
      "Jungs": 5875,
      "Jack": 5876,
      "Joh": 5877,
      "Kas": 5878,
      "Kam": 5879,
      "Kier": 5880,
      "Kul": 5881,
      "Kick": 5882,
      "Koll": 5883,
      "Kohle": 5884,
      "Lad": 5885,
      "Lob": 5886,
      "Lohn": 5887,
      "Live": 5888,
      "Lana": 5889,
      "Liste": 5890,
      "Lives": 5891,
      "Lacker": 5892,
      "MS": 5893,
      "Mé": 5894,
      "Mun": 5895,
      "Mur": 5896,
      "Mir": 5897,
      "Massen": 5898,
      "Mug": 5899,
      "Mater": 5900,
      "Mobil": 5901,
      "Miet": 5902,
      "Nein": 5903,
      "Noch": 5904,
      "Nort": 5905,
      "Nic": 5906,
      "Norden": 5907,
      "Nine": 5908,
      "Natur": 5909,
      "Nhai": 5910,
      "NFL": 5911,
      "Ok": 5912,
      "Oze": 5913,
      "Osto": 5914,
      "Ohne": 5915,
      "Osteuropa": 5916,
      "Pen": 5917,
      "Pan": 5918,
      "Pre": 5919,
      "Pfe": 5920,
      "Pap": 5921,
      "Pühr": 5922,
      "Popp": 5923,
      "Poten": 5924,
      "Preise": 5925,
      "Psych": 5926,
      "Pots": 5927,
      "Ren": 5928,
      "Rit": 5929,
      "Ros": 5930,
      "Runde": 5931,
      "Rett": 5932,
      "Rac": 5933,
      "Renten": 5934,
      "Räume": 5935,
      "Sü": 5936,
      "Sein": 5937,
      "Smit": 5938,
      "Sne": 5939,
      "Sid": 5940,
      "Sachen": 5941,
      "SMS": 5942,
      "TV": 5943,
      "Ty": 5944,
      "Tal": 5945,
      "Tar": 5946,
      "Thr": 5947,
      "Twe": 5948,
      "Tuch": 5949,
      "Tenden": 5950,
      "Taf": 5951,
      "Träum": 5952,
      "Uk": 5953,
      "Ul": 5954,
      "VC": 5955,
      "Var": 5956,
      "WE": 5957,
      "Wi": 5958,
      "Win": 5959,
      "Wicht": 5960,
      "What": 5961,
      "Wet": 5962,
      "Wall": 5963,
      "Wind": 5964,
      "Würz": 5965,
      "Wayne": 5966,
      "Wider": 5967,
      "Zü": 5968,
      "afen": 5969,
      "auns": 5970,
      "bun": 5971,
      "bas": 5972,
      "blich": 5973,
      "bischen": 5974,
      "bungen": 5975,
      "baden": 5976,
      "bitten": 5977,
      "böen": 5978,
      "com": 5979,
      "cos": 5980,
      "ctor": 5981,
      "castle": 5982,
      "do": 5983,
      "dur": 5984,
      "dis": 5985,
      "dige": 5986,
      "dnis": 5987,
      "dachte": 5988,
      "een": 5989,
      "eziell": 5990,
      "fi": 5991,
      "fra": 5992,
      "fün": 5993,
      "felt": 5994,
      "fess": 5995,
      "fanden": 5996,
      "fasst": 5997,
      "findung": 5998,
      "fix": 5999,
      "fließen": 6000,
      "fettleib": 6001,
      "gei": 6002,
      "gst": 6003,
      "gro": 6004,
      "gra": 6005,
      "gol": 6006,
      "gart": 6007,
      "gast": 6008,
      "gingen": 6009,
      "guten": 6010,
      "geist": 6011,
      "gomer": 6012,
      "hte": 6013,
      "hung": 6014,
      "hle": 6015,
      "heil": 6016,
      "hym": 6017,
      "hängt": 6018,
      "ih": 6019,
      "iö": 6020,
      "iam": 6021,
      "ise": 6022,
      "iard": 6023,
      "jur": 6024,
      "job": 6025,
      "jah": 6026,
      "kas": 6027,
      "kat": 6028,
      "kand": 6029,
      "kap": 6030,
      "kennen": 6031,
      "kstad": 6032,
      "kömm": 6033,
      "lte": 6034,
      "latz": 6035,
      "läng": 6036,
      "mu": 6037,
      "mis": 6038,
      "mord": 6039,
      "mlung": 6040,
      "mobil": 6041,
      "mström": 6042,
      "nik": 6043,
      "nieren": 6044,
      "nommen": 6045,
      "nationale": 6046,
      "odie": 6047,
      "pol": 6048,
      "prise": 6049,
      "pause": 6050,
      "papier": 6051,
      "que": 6052,
      "raus": 6053,
      "rand": 6054,
      "rison": 6055,
      "risik": 6056,
      "rimin": 6057,
      "ss": 6058,
      "sorgen": 6059,
      "sache": 6060,
      "swert": 6061,
      "shof": 6062,
      "solide": 6063,
      "sbaden": 6064,
      "tige": 6065,
      "tran": 6066,
      "trat": 6067,
      "tats": 6068,
      "tritt": 6069,
      "traum": 6070,
      "tgemein": 6071,
      "teile": 6072,
      "uk": 6073,
      "uen": 6074,
      "ugel": 6075,
      "ucken": 6076,
      "ville": 6077,
      "vative": 6078,
      "völker": 6079,
      "win": 6080,
      "wid": 6081,
      "wächst": 6082,
      "wfix": 6083,
      "xit": 6084,
      "zo": 6085,
      "zig": 6086,
      "ziger": 6087,
      "zana": 6088,
      "zykl": 6089,
      "Ökon": 6090,
      "äst": 6091,
      "öne": 6092,
      "öcken": 6093,
      "ötzlich": 6094,
      "üt": 6095,
      "übr": 6096,
      "engl": 6097,
      "enze": 6098,
      "erw": 6099,
      "erneu": 6100,
      "erör": 6101,
      "erfahren": 6102,
      "erleben": 6103,
      "ersetzt": 6104,
      "ermut": 6105,
      "char": 6106,
      "chischen": 6107,
      "chirurgie": 6108,
      "ini": 6109,
      "inst": 6110,
      "inten": 6111,
      "indes": 6112,
      "insel": 6113,
      "infrage": 6114,
      "inator": 6115,
      "inmot": 6116,
      "inakzept": 6117,
      "inspir": 6118,
      "ieß": 6119,
      "iechen": 6120,
      "ießen": 6121,
      "iefert": 6122,
      "iechischen": 6123,
      "unmittel": 6124,
      "unbekann": 6125,
      "unwahrscheinlich": 6126,
      "unzufrieden": 6127,
      "ungewöhn": 6128,
      "eien": 6129,
      "eich": 6130,
      "eisen": 6131,
      "ston": 6132,
      "station": 6133,
      "stock": 6134,
      "stums": 6135,
      "ansehen": 6136,
      "anstatt": 6137,
      "analy": 6138,
      "ankommenden": 6139,
      "anbieten": 6140,
      "anfangen": 6141,
      "angenehm": 6142,
      "angemessen": 6143,
      "einger": 6144,
      "einheit": 6145,
      "einsetzen": 6146,
      "dert": 6147,
      "gete": 6148,
      "geha": 6149,
      "geöff": 6150,
      "gesteht": 6151,
      "geplan": 6152,
      "geschaffen": 6153,
      "gespielt": 6154,
      "geplant": 6155,
      "gelangen": 6156,
      "gearbeitet": 6157,
      "gefordert": 6158,
      "gezeichnet": 6159,
      "geschafft": 6160,
      "geblieben": 6161,
      "gesprochen": 6162,
      "gedreht": 6163,
      "gefehlt": 6164,
      "gekauft": 6165,
      "geeignet": 6166,
      "testen": 6167,
      "temper": 6168,
      "oncos": 6169,
      "schal": 6170,
      "schme": 6171,
      "schön": 6172,
      "schott": 6173,
      "schutz": 6174,
      "schalten": 6175,
      "schule": 6176,
      "deen": 6177,
      "defro": 6178,
      "depress": 6179,
      "denfe": 6180,
      "denjenigen": 6181,
      "alität": 6182,
      "alteten": 6183,
      "assag": 6184,
      "arm": 6185,
      "aren": 6186,
      "itas": 6187,
      "gener": 6188,
      "genügend": 6189,
      "tend": 6190,
      "orien": 6191,
      "ordent": 6192,
      "hrt": 6193,
      "zuvers": 6194,
      "zugehen": 6195,
      "zukün": 6196,
      "zurecht": 6197,
      "ath": 6198,
      "atte": 6199,
      "atungen": 6200,
      "esso": 6201,
      "lligen": 6202,
      "ame": 6203,
      "ams": 6204,
      "amatisch": 6205,
      "terer": 6206,
      "terie": 6207,
      "terte": 6208,
      "beralen": 6209,
      "bereiten": 6210,
      "agd": 6211,
      "agno": 6212,
      "beam": 6213,
      "beur": 6214,
      "beauf": 6215,
      "beschä": 6216,
      "belei": 6217,
      "bewegen": 6218,
      "beschlossen": 6219,
      "befinden": 6220,
      "behar": 6221,
      "bedingungen": 6222,
      "bemü": 6223,
      "begrün": 6224,
      "bewält": 6225,
      "bezü": 6226,
      "begrenz": 6227,
      "behandelt": 6228,
      "beliebte": 6229,
      "beschreibt": 6230,
      "bedroht": 6231,
      "sequenzen": 6232,
      "setzten": 6233,
      "acheld": 6234,
      "verk": 6235,
      "versch": 6236,
      "vermei": 6237,
      "vertre": 6238,
      "verdopp": 6239,
      "verhandelt": 6240,
      "verschär": 6241,
      "verstarb": 6242,
      "verärgert": 6243,
      "rochen": 6244,
      "routen": 6245,
      "robat": 6246,
      "aufrecht": 6247,
      "aufgrund": 6248,
      "aufgere": 6249,
      "aufregen": 6250,
      "aufgewachsen": 6251,
      "ichtlich": 6252,
      "igan": 6253,
      "igart": 6254,
      "igungs": 6255,
      "igramm": 6256,
      "istischen": 6257,
      "leg": 6258,
      "legte": 6259,
      "lebnis": 6260,
      "ime": 6261,
      "imit": 6262,
      "imir": 6263,
      "imine": 6264,
      "lichkeiten": 6265,
      "isen": 6266,
      "isierten": 6267,
      "umgehen": 6268,
      "umgebaut": 6269,
      "entkommen": 6270,
      "entierten": 6271,
      "entsteht": 6272,
      "entweder": 6273,
      "nee": 6274,
      "need": 6275,
      "necastle": 6276,
      "ischte": 6277,
      "reck": 6278,
      "rekt": 6279,
      "relig": 6280,
      "refu": 6281,
      "reduzieren": 6282,
      "rewfix": 6283,
      "ckend": 6284,
      "tzgeber": 6285,
      "ausger": 6286,
      "ausend": 6287,
      "ausenden": 6288,
      "aussieht": 6289,
      "auseinander": 6290,
      "demon": 6291,
      "demograph": 6292,
      "stel": 6293,
      "steuropä": 6294,
      "raschen": 6295,
      "ratet": 6296,
      "rahlt": 6297,
      "Stä": 6298,
      "Stär": 6299,
      "Stru": 6300,
      "Stoff": 6301,
      "Stille": 6302,
      "Stürmer": 6303,
      "Stabil": 6304,
      "Stacheld": 6305,
      "ktor": 6306,
      "ktoren": 6307,
      "werke": 6308,
      "werfer": 6309,
      "ahrunfall": 6310,
      "usern": 6311,
      "usins": 6312,
      "utt": 6313,
      "weist": 6314,
      "weiger": 6315,
      "weichen": 6316,
      "weitet": 6317,
      "spion": 6318,
      "sprü": 6319,
      "spläne": 6320,
      "späten": 6321,
      "spray": 6322,
      "sprang": 6323,
      "menge": 6324,
      "mensch": 6325,
      "wirft": 6326,
      "Dietr": 6327,
      "warnte": 6328,
      "ochen": 6329,
      "reist": 6330,
      "reiter": 6331,
      "reift": 6332,
      "reißen": 6333,
      "vorgele": 6334,
      "vorgeschlagen": 6335,
      "überwie": 6336,
      "überraschen": 6337,
      "Verhalten": 6338,
      "Verfahr": 6339,
      "Verwand": 6340,
      "Verlag": 6341,
      "Versuchen": 6342,
      "Verantwort": 6343,
      "Verteilung": 6344,
      "Verdoppel": 6345,
      "Verwaltung": 6346,
      "Verpfl": 6347,
      "Vermögen": 6348,
      "Ant": 6349,
      "Anrei": 6350,
      "Anhör": 6351,
      "Anstatt": 6352,
      "Ankunft": 6353,
      "Anwohner": 6354,
      "Anspruch": 6355,
      "Andy": 6356,
      "Ansprache": 6357,
      "Angelegen": 6358,
      "Prom": 6359,
      "Progno": 6360,
      "Schwä": 6361,
      "Schock": 6362,
      "Schule": 6363,
      "School": 6364,
      "Schweiz": 6365,
      "Schnee": 6366,
      "änien": 6367,
      "änhardt": 6368,
      "etts": 6369,
      "Untreue": 6370,
      "Unsicherheit": 6371,
      "linge": 6372,
      "lingen": 6373,
      "linke": 6374,
      "lings": 6375,
      "links": 6376,
      "heben": 6377,
      "heut": 6378,
      "hestand": 6379,
      "meer": 6380,
      "nachmittag": 6381,
      "Ersatz": 6382,
      "Erhöh": 6383,
      "Erinner": 6384,
      "Ermittler": 6385,
      "Erlebnis": 6386,
      "abkommen": 6387,
      "abbau": 6388,
      "abschie": 6389,
      "abgele": 6390,
      "abbauen": 6391,
      "abschloss": 6392,
      "allzu": 6393,
      "allieren": 6394,
      "allgemeinen": 6395,
      "Bef": 6396,
      "Bewert": 6397,
      "Bedür": 6398,
      "Begrenz": 6399,
      "Bezir": 6400,
      "Begeg": 6401,
      "geringe": 6402,
      "geriet": 6403,
      "Einschä": 6404,
      "Einblick": 6405,
      "Einnahmen": 6406,
      "Einrichtung": 6407,
      "Gest": 6408,
      "Gefahren": 6409,
      "Gedenk": 6410,
      "Spo": 6411,
      "Spin": 6412,
      "Span": 6413,
      "Spar": 6414,
      "Spiegel": 6415,
      "Spezial": 6416,
      "Spec": 6417,
      "ike": 6418,
      "ikel": 6419,
      "schlimme": 6420,
      "schlafen": 6421,
      "Refor": 6422,
      "Reuter": 6423,
      "llenführer": 6424,
      "klein": 6425,
      "klage": 6426,
      "klang": 6427,
      "serie": 6428,
      "servative": 6429,
      "Griechen": 6430,
      "glicht": 6431,
      "komm": 6432,
      "kompl": 6433,
      "schafter": 6434,
      "indt": 6435,
      "indungen": 6436,
      "indust": 6437,
      "ündnis": 6438,
      "Mitter": 6439,
      "Mitange": 6440,
      "Mitspieler": 6441,
      "ärz": 6442,
      "unternehmen": 6443,
      "unterhalten": 6444,
      "unterzogen": 6445,
      "merzen": 6446,
      "mergericht": 6447,
      "merksam": 6448,
      "zeige": 6449,
      "zeug": 6450,
      "zember": 6451,
      "brach": 6452,
      "bricht": 6453,
      "brindt": 6454,
      "Flug": 6455,
      "Flucht": 6456,
      "Flanke": 6457,
      "ingverdien": 6458,
      "halben": 6459,
      "grenze": 6460,
      "griechischen": 6461,
      "lant": 6462,
      "lanten": 6463,
      "langer": 6464,
      "adus": 6465,
      "mehreren": 6466,
      "seite": 6467,
      "arto": 6468,
      "gane": 6469,
      "hinweg": 6470,
      "üchtlinge": 6471,
      "durchsetzen": 6472,
      "gelände": 6473,
      "geleitet": 6474,
      "schafts": 6475,
      "Demon": 6476,
      "Dezember": 6477,
      "Vorhaben": 6478,
      "Vorwür": 6479,
      "Encel": 6480,
      "Unterhalt": 6481,
      "Unterkünfte": 6482,
      "ungsgesetz": 6483,
      "ungszykl": 6484,
      "Lever": 6485,
      "gewinnt": 6486,
      "gewisse": 6487,
      "gebrochen": 6488,
      "Aussagen": 6489,
      "Auszeich": 6490,
      "Ausdruck": 6491,
      "Auseinander": 6492,
      "Tech": 6493,
      "rieder": 6494,
      "riefen": 6495,
      "Nachwuchs": 6496,
      "fenster": 6497,
      "Mensch": 6498,
      "ppe": 6499,
      "selte": 6500,
      "selten": 6501,
      "Umbau": 6502,
      "Umgang": 6503,
      "Umsätze": 6504,
      "Umfragen": 6505,
      "Umgebung": 6506,
      "zweistell": 6507,
      "liest": 6508,
      "liebt": 6509,
      "liefern": 6510,
      "Wirk": 6511,
      "Wirbel": 6512,
      "sammelten": 6513,
      "digte": 6514,
      "digit": 6515,
      "schädlich": 6516,
      "edy": 6517,
      "Spielfeld": 6518,
      "mangel": 6519,
      "manager": 6520,
      "mancher": 6521,
      "manchmal": 6522,
      "Alp": 6523,
      "Alben": 6524,
      "Altern": 6525,
      "Alpen": 6526,
      "leiden": 6527,
      "leiter": 6528,
      "wenden": 6529,
      "Neue": 6530,
      "Nemat": 6531,
      "besuchen": 6532,
      "besitzen": 6533,
      "gida": 6534,
      "hang": 6535,
      "Deutsch": 6536,
      "how": 6537,
      "hofer": 6538,
      "spielten": 6539,
      "rid": 6540,
      "Marken": 6541,
      "Beratungen": 6542,
      "Zuerst": 6543,
      "Zucker": 6544,
      "Zustrom": 6545,
      "uteten": 6546,
      "führten": 6547,
      "führenden": 6548,
      "frischen": 6549,
      "Aufsp": 6550,
      "würdige": 6551,
      "alth": 6552,
      "rückt": 6553,
      "rückgäng": 6554,
      "mögliche": 6555,
      "acks": 6556,
      "Sech": 6557,
      "Seat": 6558,
      "Seuss": 6559,
      "Sekunden": 6560,
      "Seattle": 6561,
      "malen": 6562,
      "Zeitalter": 6563,
      "Zeitfenster": 6564,
      "Immer": 6565,
      "Impul": 6566,
      "dio": 6567,
      "perfe": 6568,
      "gemischt": 6569,
      "ates": 6570,
      "fahrt": 6571,
      "hmigung": 6572,
      "glichkeit": 6573,
      "2012": 6574,
      "Steuer": 6575,
      "Stewards": 6576,
      "deutsch": 6577,
      "flach": 6578,
      "flüchtlinge": 6579,
      "Milligramm": 6580,
      "Roten": 6581,
      "Rose": 6582,
      "wiederholt": 6583,
      "bare": 6584,
      "barung": 6585,
      "Konzept": 6586,
      "Kongress": 6587,
      "Konsequenzen": 6588,
      "provo": 6589,
      "produziert": 6590,
      "stücks": 6591,
      "klären": 6592,
      "okuss": 6593,
      "train": 6594,
      "autos": 6595,
      "ampf": 6596,
      "Studien": 6597,
      "Plus": 6598,
      "marktes": 6599,
      "innern": 6600,
      "Polizeichef": 6601,
      "Gesamt": 6602,
      "hauses": 6603,
      "machten": 6604,
      "Maß": 6605,
      "Maier": 6606,
      "Mais": 6607,
      "Maxim": 6608,
      "Mazedon": 6609,
      "Wegen": 6610,
      "Dazu": 6611,
      "Dave": 6612,
      "neueste": 6613,
      "Mex": 6614,
      "angesichts": 6615,
      "angespann": 6616,
      "angehoben": 6617,
      "angepasst": 6618,
      "dentran": 6619,
      "Aberdeen": 6620,
      "Bilanz": 6621,
      "Toten": 6622,
      "Tovar": 6623,
      "apur": 6624,
      "starke": 6625,
      "starteten": 6626,
      "Bundesbau": 6627,
      "müsste": 6628,
      "2001": 6629,
      "2003": 6630,
      "2004": 6631,
      "2005": 6632,
      "damer": 6633,
      "heiratet": 6634,
      "trennt": 6635,
      "zurückgeschickt": 6636,
      "Abkommen": 6637,
      "Absatz": 6638,
      "Express": 6639,
      "ExCe": 6640,
      "geschw": 6641,
      "geschossen": 6642,
      "Regisse": 6643,
      "Regierungs": 6644,
      "Registr": 6645,
      "Mittwochmorgen": 6646,
      "Freie": 6647,
      "Modes": 6648,
      "Moeen": 6649,
      "Wohnen": 6650,
      "locken": 6651,
      "maßnahmen": 6652,
      "kaufen": 6653,
      "präsidenten": 6654,
      "ordnung": 6655,
      "ordinator": 6656,
      "Parallel": 6657,
      "beginn": 6658,
      "1950": 6659,
      "Leiter": 6660,
      "Leichen": 6661,
      "Weiße": 6662,
      "Weidenfe": 6663,
      "aldirektor": 6664,
      "Entschädigung": 6665,
      "Großstädten": 6666,
      "Großmoschee": 6667,
      "Malmström": 6668,
      "Grenzstadt": 6669,
      "fünften": 6670,
      "erklärten": 6671,
      "gestanden": 6672,
      "Kleinen": 6673,
      "Konto": 6674,
      "sahen": 6675,
      "saison": 6676,
      "selbstfahrende": 6677,
      "Häuser": 6678,
      "tags": 6679,
      "tagt": 6680,
      "äußer": 6681,
      "eigener": 6682,
      "möglichkeiten": 6683,
      "Herzen": 6684,
      "Kindes": 6685,
      "kooper": 6686,
      "Handlung": 6687,
      "Handys": 6688,
      "Handta": 6689,
      "vergangene": 6690,
      "kehrt": 6691,
      "ministerin": 6692,
      "ministerium": 6693,
      "Forge": 6694,
      "Jeder": 6695,
      "Serien": 6696,
      "Produkten": 6697,
      "Coach": 6698,
      "Cousins": 6699,
      "Health": 6700,
      "Wiesbaden": 6701,
      "scheinlichkeit": 6702,
      "wirksam": 6703,
      "Hauses": 6704,
      "holten": 6705,
      "Vereinbarung": 6706,
      "Schlaf": 6707,
      "Betten": 6708,
      "Betroffen": 6709,
      "Montgomer": 6710,
      "Schulter": 6711,
      "Mediz": 6712,
      "Werk": 6713,
      "Werte": 6714,
      "Werbe": 6715,
      "Zehnt": 6716,
      "dienen": 6717,
      "diensten": 6718,
      "offenen": 6719,
      "einzigart": 6720,
      "schwachen": 6721,
      "Problemen": 6722,
      "Internet": 6723,
      "hilfen": 6724,
      "ours": 6725,
      "gesunden": 6726,
      "Boer": 6727,
      "Bodentran": 6728,
      "Broncos": 6729,
      "Bauvor": 6730,
      "Bauantrag": 6731,
      "Music": 6732,
      "Muskel": 6733,
      "kamen": 6734,
      "kammer": 6735,
      "ansion": 6736,
      "zusammenzu": 6737,
      "Sporthallen": 6738,
      "Entscheidungs": 6739,
      "drängt": 6740,
      "plane": 6741,
      "höheren": 6742,
      "Flüchtlingszahlen": 6743,
      "gemeinnütz": 6744,
      "Samtgemein": 6745,
      "fäh": 6746,
      "fäl": 6747,
      "fällen": 6748,
      "fällt": 6749,
      "kshire": 6750,
      "stattfinden": 6751,
      "hinterlassen": 6752,
      "meistens": 6753,
      "Ihrem": 6754,
      "Finanzierung": 6755,
      "Committe": 6756,
      "Comedy": 6757,
      "Geringverdien": 6758,
      "Pegida": 6759,
      "Urteils": 6760,
      "jährlich": 6761,
      "jährigen": 6762,
      "jährlichen": 6763,
      "zessin": 6764,
      "erlitten": 6765,
      "erscheinen": 6766,
      "schlechten": 6767,
      "Grundlage": 6768,
      "Arbeitskräfte": 6769,
      "Arbeitslosigkeit": 6770,
      "Meinungen": 6771,
      "Pflanzen": 6772,
      "drehen": 6773,
      "oberen": 6774,
      "vollständig": 6775,
      "Neuverhand": 6776,
      "wichtigsten": 6777,
      "McInn": 6778,
      "jahres": 6779,
      "mond": 6780,
      "registr": 6781,
      "Angeber": 6782,
      "Donnerstagmorgen": 6783,
      "Aktienverkauf": 6784,
      "Hotel": 6785,
      "Ideen": 6786,
      "Wahlkamp": 6787,
      "plom": 6788,
      "plötzlich": 6789,
      "sentschädig": 6790,
      "gesamte": 6791,
      "gesamten": 6792,
      "ologisch": 6793,
      "Australien": 6794,
      "hinzufügte": 6795,
      "okratische": 6796,
      "Bennet": 6797,
      "Benutz": 6798,
      "Britten": 6799,
      "Britischen": 6800,
      "Diplom": 6801,
      "Senior": 6802,
      "Wohl": 6803,
      "Warbur": 6804,
      "bilden": 6805,
      "bilater": 6806,
      "gutes": 6807,
      "laufende": 6808,
      "Investor": 6809,
      "erzielt": 6810,
      "erzielen": 6811,
      "Liberalen": 6812,
      "Links": 6813,
      "Radfahrer": 6814,
      "Sonogenetics": 6815,
      "Mitgliedschaft": 6816,
      "Alts": 6817,
      "BMJ": 6818,
      "Baruch": 6819,
      "Barcel": 6820,
      "Hierauf": 6821,
      "Thneed": 6822,
      "meldet": 6823,
      "wärts": 6824,
      "Verbrechen": 6825,
      "Verbindung": 6826,
      "Verbindungen": 6827,
      "Inning": 6828,
      "Gesetzgeber": 6829,
      "kündigung": 6830,
      "Medienberichten": 6831,
      "kämpfe": 6832,
      "Früher": 6833,
      "Hauptstädten": 6834,
      "Sitzungen": 6835,
      "notiert": 6836,
      "eröffnete": 6837,
      "iegelt": 6838,
      "grundsätzlich": 6839,
      "erzählen": 6840,
      "Königs": 6841,
      "Allgemein": 6842,
      "Zinssatz": 6843,
      "dürfte": 6844,
      "wachsenden": 6845,
      "gefroren": 6846,
      "illeg": 6847,
      "Bereichen": 6848,
      "Bereiche": 6849,
      "ziehende": 6850,
      "Autofahrer": 6851,
      "Folk": 6852,
      "Folter": 6853,
      "Mult": 6854,
      "Museum": 6855,
      "Seitdem": 6856,
      "tain": 6857,
      "Öffnung": 6858,
      "andelt": 6859,
      "einfache": 6860,
      "verwenden": 6861,
      "Gewinne": 6862,
      "Vorsitzenden": 6863,
      "Zuschauern": 6864,
      "Freien": 6865,
      "Fernseh": 6866,
      "Falls": 6867,
      "Michigan": 6868,
      "Risiken": 6869,
      "händlern": 6870,
      "erfolgt": 6871,
      "werkschaft": 6872,
      "Analyse": 6873,
      "Schwung": 6874,
      "Mittelpunkt": 6875,
      "Mittelfeld": 6876,
      "Mittelmeer": 6877,
      "gemeinsame": 6878,
      "Freitagabend": 6879,
      "Zusammenarbeit": 6880,
      "Apple": 6881,
      "Bislang": 6882,
      "Bernrieder": 6883,
      "Joburg": 6884,
      "Julian": 6885,
      "Leitung": 6886,
      "Leitner": 6887,
      "Nationalhym": 6888,
      "Wachstums": 6889,
      "Wiland": 6890,
      "Yorkshire": 6891,
      "kanäle": 6892,
      "welchen": 6893,
      "chtert": 6894,
      "wechselt": 6895,
      "Sozialstiftung": 6896,
      "Ministerin": 6897,
      "Ministerpräsident": 6898,
      "Fahrerflucht": 6899,
      "Universitäts": 6900,
      "Videos": 6901,
      "Attack": 6902,
      "Darüber": 6903,
      "Kapit": 6904,
      "Kapverd": 6905,
      "LaForge": 6906,
      "Peroni": 6907,
      "Planung": 6908,
      "krimine": 6909,
      "kindern": 6910,
      "lagern": 6911,
      "missbrauch": 6912,
      "ski": 6913,
      "suchende": 6914,
      "vereinbart": 6915,
      "Demnach": 6916,
      "Demokratischen": 6917,
      "Roberto": 6918,
      "1999": 6919,
      "Personal": 6920,
      "schuldigte": 6921,
      "Institute": 6922,
      "Rheinland": 6923,
      "Dobrindt": 6924,
      "Emder": 6925,
      "Godefro": 6926,
      "Knöch": 6927,
      "Mikl": 6928,
      "Südwe": 6929,
      "Turbulenzen": 6930,
      "Türen": 6931,
      "Time": 6932,
      "Timo": 6933,
      "Volle": 6934,
      "Vorteil": 6935,
      "Vortrag": 6936,
      "boys": 6937,
      "kürzt": 6938,
      "index": 6939,
      "beeinfl": 6940,
      "vermis": 6941,
      "verstärkt": 6942,
      "verstärkten": 6943,
      "benötigt": 6944,
      "entfernen": 6945,
      "Einwanderer": 6946,
      "Sprache": 6947,
      "konzentrieren": 6948,
      "Konflikte": 6949,
      "früheren": 6950,
      "Samstagabend": 6951,
      "Generaldirektor": 6952,
      "Lehrerin": 6953,
      "Hochschule": 6954,
      "Joe": 6955,
      "Light": 6956,
      "Singapur": 6957,
      "Volks": 6958,
      "Volatil": 6959,
      "Wales": 6960,
      "hüter": 6961,
      "ländische": 6962,
      "längeren": 6963,
      "ältere": 6964,
      "erinnerte": 6965,
      "angeboten": 6966,
      "schützen": 6967,
      "beschäftigen": 6968,
      "verdächt": 6969,
      "fferspray": 6970,
      "Angriffe": 6971,
      "Ernennung": 6972,
      "Jahrzehnten": 6973,
      "Gefähr": 6974,
      "kleinere": 6975,
      "kleineren": 6976,
      "Untersuchungen": 6977,
      "Prinzessin": 6978,
      "Grenzübergang": 6979,
      "Grenzübergänge": 6980,
      "Reihenhäuser": 6981,
      "freundlich": 6982,
      "Königreichs": 6983,
      "verursacht": 6984,
      "diskutiert": 6985,
      "Brexit": 6986,
      "Drogen": 6987,
      "Dennoch": 6988,
      "Double": 6989,
      "Islam": 6990,
      "Justiz": 6991,
      "Motone": 6992,
      "Screwfix": 6993,
      "empfangen": 6994,
      "hile": 6995,
      "lokalen": 6996,
      "lokale": 6997,
      "politischen": 6998,
      "respekt": 6999,
      "sitzt": 7000,
      "ereien": 7001,
      "stürm": 7002,
      "stören": 7003,
      "argumentierte": 7004,
      "zusätzlichen": 7005,
      "verwandel": 7006,
      "Street": 7007,
      "herape": 7008,
      "Stephen": 7009,
      "ströme": 7010,
      "folgenden": 7011,
      "niederländischen": 7012,
      "Europäischen": 7013,
      "Fahrzeug": 7014,
      "Fahrzeuge": 7015,
      "Partnerin": 7016,
      "privaten": 7017,
      "Künstlerhaus": 7018,
      "Entwicklungen": 7019,
      "Ass": 7020,
      "Botschafter": 7021,
      "Buches": 7022,
      "Edinburg": 7023,
      "Helfer": 7024,
      "Hintergrund": 7025,
      "Oststaaten": 7026,
      "Ruhestand": 7027,
      "Sterbe": 7028,
      "Trauer": 7029,
      "Wolfgang": 7030,
      "Wolfschm": 7031,
      "kabine": 7032,
      "löste": 7033,
      "tätig": 7034,
      "zielte": 7035,
      "erlebt": 7036,
      "erheb": 7037,
      "studie": 7038,
      "stufe": 7039,
      "australische": 7040,
      "bemerkte": 7041,
      "versammelten": 7042,
      "versammlung": 7043,
      "sozialen": 7044,
      "soziale": 7045,
      "Proteste": 7046,
      "Schätzung": 7047,
      "Erfahrung": 7048,
      "unterrichtet": 7049,
      "unterrichtete": 7050,
      "Bergsteiger": 7051,
      "begannen": 7052,
      "Herrn": 7053,
      "Präsidentenamt": 7054,
      "schwierigen": 7055,
      "Muslime": 7056,
      "Muslimen": 7057,
      "Finanzmärkten": 7058,
      "Belastung": 7059,
      "Belastungs": 7060,
      "Qualifikations": 7061,
      "Weihnachtsgeschäft": 7062,
      "Journalisten": 7063,
      "Victoria": 7064,
      "Beitrag": 7065,
      "Drittligisten": 7066,
      "Foto": 7067,
      "Frustr": 7068,
      "Graf": 7069,
      "Kanal": 7070,
      "Kalorien": 7071,
      "Krieg": 7072,
      "Madrid": 7073,
      "Normal": 7074,
      "Option": 7075,
      "Rennsport": 7076,
      "Trotzdem": 7077,
      "Wahrscheinlichkeit": 7078,
      "europäischer": 7079,
      "fantast": 7080,
      "junger": 7081,
      "kenntnisse": 7082,
      "massive": 7083,
      "massiven": 7084,
      "Ökumenischen": 7085,
      "Ökumenische": 7086,
      "eingeleitet": 7087,
      "schicken": 7088,
      "mittelt": 7089,
      "entdeckt": 7090,
      "ausgestrahlt": 7091,
      "Status": 7092,
      "Enterprise": 7093,
      "Entertain": 7094,
      "gewalttät": 7095,
      "Temperament": 7096,
      "Mekka": 7097,
      "Mekkas": 7098,
      "Expansion": 7099,
      "qualifiz": 7100,
      "engagiert": 7101,
      "regionalen": 7102,
      "Shops": 7103,
      "beeindruckende": 7104,
      "Funktionär": 7105,
      "Kompaktklasse": 7106,
      "Afghanistan": 7107,
      "Agenda": 7108,
      "Ebene": 7109,
      "Ehepartner": 7110,
      "Fraktur": 7111,
      "Fielder": 7112,
      "Gaal": 7113,
      "Geträn": 7114,
      "Haustür": 7115,
      "Harrison": 7116,
      "Hoffnung": 7117,
      "Matter": 7118,
      "Nahen": 7119,
      "ORC": 7120,
      "Reinhardt": 7121,
      "Tackling": 7122,
      "Tabellenführer": 7123,
      "billigen": 7124,
      "bayerischen": 7125,
      "karten": 7126,
      "psychisch": 7127,
      "talentierten": 7128,
      "vangel": 7129,
      "zerstört": 7130,
      "informiert": 7131,
      "studierte": 7132,
      "bezahlbaren": 7133,
      "verzeichnen": 7134,
      "ausgewählt": 7135,
      "andauernden": 7136,
      "Stanley": 7137,
      "sogenannten": 7138,
      "übergewichtige": 7139,
      "Version": 7140,
      "Inneren": 7141,
      "Informationen": 7142,
      "Unsere": 7143,
      "abgeriegelt": 7144,
      "Gelegenheit": 7145,
      "Spaß": 7146,
      "glücklich": 7147,
      "kommentierte": 7148,
      "endgültig": 7149,
      "Netzwerk": 7150,
      "Aufenthalts": 7151,
      "Aufwandsentschädig": 7152,
      "Seehofer": 7153,
      "Abgeordneten": 7154,
      "geschieht": 7155,
      "Regional": 7156,
      "Finalisten": 7157,
      "Medicine": 7158,
      "verteidiger": 7159,
      "amerikanischen": 7160,
      "FriendsFest": 7161,
      "Staatsanwalt": 7162,
      "Immunsystem": 7163,
      "Durchschnitt": 7164,
      "Freihandelsabkommen": 7165,
      "Knowles": 7166,
      "Streitigkeiten": 7167,
      "Douglass": 7168,
      "Greenville": 7169,
      "Stephanie": 7170,
      "Website": 7171,
      "Studentenwohnheimen": 7172,
      "Zwischenzeit": 7173,
      "attraktiver": 7174,
      "Ereignis": 7175,
      "Gorillas": 7176,
      "Goldman": 7177,
      "fasziniert": 7178,
      "Acc": 7179,
      "Akrobat": 7180,
      "Babys": 7181,
      "Benzinmot": 7182,
      "CDU": 7183,
      "CSU": 7184,
      "Cricket": 7185,
      "Chaos": 7186,
      "Cowboys": 7187,
      "DLR": 7188,
      "Dorf": 7189,
      "Faktor": 7190,
      "Kissingen": 7191,
      "Neilson": 7192,
      "Notenbank": 7193,
      "Polen": 7194,
      "Rumänien": 7195,
      "Rubio": 7196,
      "Raubfischen": 7197,
      "Summe": 7198,
      "Signal": 7199,
      "Wagner": 7200,
      "Zähne": 7201,
      "film": 7202,
      "fördern": 7203,
      "enorme": 7204,
      "enamtlichen": 7205,
      "erleichtert": 7206,
      "ermöglicht": 7207,
      "ergänzt": 7208,
      "stolz": 7209,
      "schwarze": 7210,
      "genetisch": 7211,
      "ambulanten": 7212,
      "berechtigten": 7213,
      "behörde": 7214,
      "beantworten": 7215,
      "relativ": 7216,
      "regelmäß": 7217,
      "spezialisiert": 7218,
      "hailänd": 7219,
      "übereinstimmen": 7220,
      "Verletztenliste": 7221,
      "Schwerpunkt": 7222,
      "Schließung": 7223,
      "Schauspieler": 7224,
      "Infiniti": 7225,
      "Erkrankungen": 7226,
      "Befreiung": 7227,
      "Geheimnis": 7228,
      "Geflüchteten": 7229,
      "Auffahrunfall": 7230,
      "Mitbewohnerin": 7231,
      "prozentige": 7232,
      "profitieren": 7233,
      "Plattner": 7234,
      "Privat": 7235,
      "Leidenschaft": 7236,
      "County": 7237,
      "formuliert": 7238,
      "einzelnen": 7239,
      "Chefökonom": 7240,
      "Unterstützer": 7241,
      "Genehmigung": 7242,
      "mächtig": 7243,
      "verpflichtet": 7244,
      "Perspektive": 7245,
      "Branchenverband": 7246,
      "kümmert": 7247,
      "Archäologen": 7248,
      "verringert": 7249,
      "Langzeitstudie": 7250,
      "kabinett": 7251,
      "Pädophile": 7252,
      "Turnhallenbau": 7253,
      "Gewichtsverlustchirurgie": 7254,
      "französischen": 7255,
      "erläuterte": 7256,
      "Bebauungsplan": 7257,
      "Umkleidekabine": 7258,
      "Adresse": 7259,
      "BVB": 7260,
      "Balkan": 7261,
      "Baleno": 7262,
      "Cassini": 7263,
      "Classic": 7264,
      "Cleveland": 7265,
      "DWD": 7266,
      "Dokument": 7267,
      "Elektro": 7268,
      "Gitar": 7269,
      "Héctor": 7270,
      "Heinrich": 7271,
      "High": 7272,
      "Horgos": 7273,
      "Haddsch": 7274,
      "Ionenkanäle": 7275,
      "Jinp": 7276,
      "Johann": 7277,
      "Kammergericht": 7278,
      "Kickers": 7279,
      "Mégane": 7280,
      "Munz": 7281,
      "Mugabe": 7282,
      "Material": 7283,
      "North": 7284,
      "Nhaijah": 7285,
      "Ostojic": 7286,
      "Pfefferspray": 7287,
      "Pühringer": 7288,
      "Poppins": 7289,
      "Racing": 7290,
      "Smith": 7291,
      "Snezana": 7292,
      "Tynecastle": 7293,
      "Thränhardt": 7294,
      "Tuchel": 7295,
      "Tafeln": 7296,
      "Wetter": 7297,
      "Würzburger": 7298,
      "iardär": 7299,
      "kstadion": 7300,
      "risiken": 7301,
      "völkerung": 7302,
      "Ökonomen": 7303,
      "intensiv": 7304,
      "inakzeptabel": 7305,
      "gehabt": 7306,
      "geöffnet": 7307,
      "zuversichtlich": 7308,
      "beauftragt": 7309,
      "beharrt": 7310,
      "bewältigen": 7311,
      "vermeiden": 7312,
      "verdoppeln": 7313,
      "aufgeregt": 7314,
      "religiö": 7315,
      "demographischen": 7316,
      "steuropäischen": 7317,
      "Stärke": 7318,
      "Stabilität": 7319,
      "Stacheldra": 7320,
      "Dietrich": 7321,
      "Verfahrens": 7322,
      "Verantwortung": 7323,
      "Angelegenheit": 7324,
      "Erhöhungszykl": 7325,
      "Bewertungen": 7326,
      "Bedürf": 7327,
      "Begrenzung": 7328,
      "Begegnung": 7329,
      "Special": 7330,
      "Reformen": 7331,
      "Griechenland": 7332,
      "kompliziert": 7333,
      "industrie": 7334,
      "Mitangeklag": 7335,
      "Vorwürfe": 7336,
      "Enceladus": 7337,
      "Unterhaltungs": 7338,
      "Nematoden": 7339,
      "rückgängig": 7340,
      "provoz": 7341,
      "Mazedonien": 7342,
      "Tovarnik": 7343,
      "ExCeL": 7344,
      "Regisseur": 7345,
      "Registrierung": 7346,
      "Weidenfeller": 7347,
      "Montgomery": 7348,
      "Committee": 7349,
      "Geringverdiener": 7350,
      "McInnes": 7351,
      "Warburton": 7352,
      "Barcelona": 7353,
      "Nationalhymne": 7354,
      "Kapverdischen": 7355,
      "Godefroid": 7356,
      "Volatilität": 7357,
      "Edinburgh": 7358,
      "Wolfschmidt": 7359,
      "Aufwandsentschädigungen": 7360,
      "Akrobatik": 7361,
      "\")": 7362,
      "\":": 7363,
      "%.": 7364,
      "-\"": 7365,
      ".)": 7366,
      ".-": 7367,
      ".:": 7368,
      "06": 7369,
      "130": 7370,
      "140": 7371,
      "250": 7372,
      "350": 7373,
      "3100": 7374,
      "41": 7375,
      "440": 7376,
      "4500": 7377,
      "56": 7378,
      "57": 7379,
      "62": 7380,
      "63": 7381,
      "68": 7382,
      "688": 7383,
      "72": 7384,
      "700": 7385,
      "83": 7386,
      "84": 7387,
      "92": 7388,
      "93": 7389,
      "A5": 7390,
      "Age": 7391,
      "Aich": 7392,
      "Aar": 7393,
      "Aff": 7394,
      "Acht": 7395,
      "Ama": 7396,
      "Apr": 7397,
      "Ath": 7398,
      "Akr": 7399,
      "BP": 7400,
      "By": 7401,
      "Bas": 7402,
      "Bat": 7403,
      "Bur": 7404,
      "Bür": 7405,
      "Bum": 7406,
      "Bra": 7407,
      "Bann": 7408,
      "Blan": 7409,
      "Boll": 7410,
      "BMill": 7411,
      "Baden": 7412,
      "Bow": 7413,
      "Beinf": 7414,
      "BIP": 7415,
      "Brief": 7416,
      "Börsen": 7417,
      "Böen": 7418,
      "Bäume": 7419,
      "BAT": 7420,
      "Bündnis": 7421,
      "CP": 7422,
      "Cy": 7423,
      "Cat": 7424,
      "Cra": 7425,
      "Col": 7426,
      "Clo": 7427,
      "Caf": 7428,
      "Castle": 7429,
      "DV": 7430,
      "Dy": 7431,
      "Din": 7432,
      "Dat": 7433,
      "Dist": 7434,
      "Dha": 7435,
      "Dad": 7436,
      "Dob": 7437,
      "Date": 7438,
      "Diff": 7439,
      "Dock": 7440,
      "Dunst": 7441,
      "ER": 7442,
      "Ep": 7443,
      "Est": 7444,
      "Eon": 7445,
      "Ele": 7446,
      "Eff": 7447,
      "Ewa": 7448,
      "Emir": 7449,
      "Eth": 7450,
      "Ecke": 7451,
      "FF": 7452,
      "Fischen": 7453,
      "Fran": 7454,
      "Fuch": 7455,
      "Finn": 7456,
      "Fak": 7457,
      "Fert": 7458,
      "Fac": 7459,
      "Fair": 7460,
      "Fix": 7461,
      "Fior": 7462,
      "G9": 7463,
      "GT": 7464,
      "Gi": 7465,
      "Gu": 7466,
      "Gü": 7467,
      "Gal": 7468,
      "Gig": 7469,
      "Gab": 7470,
      "Got": 7471,
      "Gard": 7472,
      "Grem": 7473,
      "Golf": 7474,
      "Gib": 7475,
      "Gänge": 7476,
      "Hs": 7477,
      "Hu": 7478,
      "Hie": 7479,
      "Hung": 7480,
      "Heine": 7481,
      "Hür": 7482,
      "Hann": 7483,
      "Hän": 7484,
      "Hins": 7485,
      "Huns": 7486,
      "Held": 7487,
      "Hoffen": 7488,
      "Hans": 7489,
      "Hair": 7490,
      "Hyp": 7491,
      "Histor": 7492,
      "Hales": 7493,
      "Humor": 7494,
      "IT": 7495,
      "Isch": 7496,
      "Ille": 7497,
      "Iran": 7498,
      "Ital": 7499,
      "JC": 7500,
      "Jen": 7501,
      "Jar": 7502,
      "Jum": 7503,
      "Jut": 7504,
      "Jagd": 7505,
      "Keine": 7506,
      "Kob": 7507,
      "Kho": 7508,
      "Kassen": 7509,
      "Klang": 7510,
      "Kings": 7511,
      "Klet": 7512,
      "Kamer": 7513,
      "Kana": 7514,
      "Kanzler": 7515,
      "Knapp": 7516,
      "Kette": 7517,
      "Kansas": 7518,
      "Kugel": 7519,
      "Len": 7520,
      "Lein": 7521,
      "Lach": 7522,
      "Late": 7523,
      "Lia": 7524,
      "Läch": 7525,
      "Lück": 7526,
      "Läu": 7527,
      "Lunge": 7528,
      "LHP": 7529,
      "Lokal": 7530,
      "Lisa": 7531,
      "MI": 7532,
      "MP": 7533,
      "Mer": 7534,
      "Mas": 7535,
      "Mund": 7536,
      "Mag": 7537,
      "Mess": 7538,
      "Must": 7539,
      "Mauer": 7540,
      "Mott": 7541,
      "Mama": 7542,
      "NS": 7543,
      "Nar": 7544,
      "Nat": 7545,
      "Nischen": 7546,
      "Nik": 7547,
      "Nische": 7548,
      "Nationale": 7549,
      "Nasen": 7550,
      "Night": 7551,
      "One": 7552,
      "Olin": 7553,
      "PR": 7554,
      "Pa": 7555,
      "Pi": 7556,
      "Pk": 7557,
      "Put": 7558,
      "Pet": 7559,
      "Pend": 7560,
      "Pfer": 7561,
      "Psi": 7562,
      "Prat": 7563,
      "Puppe": 7564,
      "Polit": 7565,
      "Prakt": 7566,
      "Pokal": 7567,
      "Pinsel": 7568,
      "Passag": 7569,
      "RB": 7570,
      "RP": 7571,
      "RS": 7572,
      "RT": 7573,
      "Ry": 7574,
      "Rö": 7575,
      "Ron": 7576,
      "Ral": 7577,
      "Rand": 7578,
      "Rot": 7579,
      "Rick": 7580,
      "Rank": 7581,
      "Rug": 7582,
      "Rats": 7583,
      "Raf": 7584,
      "RHP": 7585,
      "RWE": 7586,
      "Rates": 7587,
      "SO": 7588,
      "SZ": 7589,
      "Sm": 7590,
      "Sä": 7591,
      "Sig": 7592,
      "Sand": 7593,
      "Set": 7594,
      "She": 7595,
      "Sab": 7596,
      "Sher": 7597,
      "Sze": 7598,
      "Sob": 7599,
      "Send": 7600,
      "Szen": 7601,
      "Ske": 7602,
      "Soli": 7603,
      "Sohn": 7604,
      "Szi": 7605,
      "Sucht": 7606,
      "Sant": 7607,
      "Sänger": 7608,
      "Sinne": 7609,
      "Sadd": 7610,
      "SFA": 7611,
      "Tu": 7612,
      "Tä": 7613,
      "Tun": 7614,
      "Trä": 7615,
      "Tieren": 7616,
      "Tiger": 7617,
      "Tank": 7618,
      "Tats": 7619,
      "Trad": 7620,
      "Tonnen": 7621,
      "Träumen": 7622,
      "Therapie": 7623,
      "Tausenden": 7624,
      "TRP": 7625,
      "Us": 7626,
      "VA": 7627,
      "VP": 7628,
      "VW": 7629,
      "Vin": 7630,
      "Vil": 7631,
      "Valle": 7632,
      "Voll": 7633,
      "Vale": 7634,
      "Ville": 7635,
      "Vlad": 7636,
      "Völker": 7637,
      "Wein": 7638,
      "Wor": 7639,
      "Wur": 7640,
      "Wel": 7641,
      "Weinen": 7642,
      "Winter": 7643,
      "Wikt": 7644,
      "Winde": 7645,
      "Worten": 7646,
      "Worte": 7647,
      "Xis": 7648,
      "Ye": 7649,
      "Yu": 7650,
      "You": 7651,
      "Zn": 7652,
      "Zel": 7653,
      "Zut": 7654,
      "Zwar": 7655,
      "Zeiten": 7656,
      "Zone": 7657,
      "Ziegel": 7658,
      "Zacks": 7659,
      "adem": 7660,
      "awar": 7661,
      "aill": 7662,
      "ainer": 7663,
      "azit": 7664,
      "bb": 7665,
      "bä": 7666,
      "bein": 7667,
      "bal": 7668,
      "bor": 7669,
      "bir": 7670,
      "baus": 7671,
      "band": 7672,
      "bol": 7673,
      "bär": 7674,
      "bungs": 7675,
      "bast": 7676,
      "boten": 7677,
      "bou": 7678,
      "blichkeit": 7679,
      "bitter": 7680,
      "ci": 7681,
      "cu": 7682,
      "cur": 7683,
      "cis": 7684,
      "cent": 7685,
      "cet": 7686,
      "cio": 7687,
      "center": 7688,
      "cca": 7689,
      "cours": 7690,
      "dw": 7691,
      "dun": 7692,
      "dho": 7693,
      "dliche": 7694,
      "dine": 7695,
      "dlung": 7696,
      "dnung": 7697,
      "direkt": 7698,
      "direktor": 7699,
      "dney": 7700,
      "eb": 7701,
      "etzt": 7702,
      "ekte": 7703,
      "eper": 7704,
      "etzung": 7705,
      "echte": 7706,
      "emot": 7707,
      "elekt": 7708,
      "effekt": 7709,
      "evangel": 7710,
      "fa": 7711,
      "fie": 7712,
      "fir": 7713,
      "fig": 7714,
      "fungen": 7715,
      "fische": 7716,
      "fähr": 7717,
      "flei": 7718,
      "famil": 7719,
      "facher": 7720,
      "fokuss": 7721,
      "gigen": 7722,
      "glichen": 7723,
      "gbar": 7724,
      "gaden": 7725,
      "gativ": 7726,
      "greift": 7727,
      "hy": 7728,
      "het": 7729,
      "här": 7730,
      "hliche": 7731,
      "händer": 7732,
      "hause": 7733,
      "hänger": 7734,
      "hyp": 7735,
      "humor": 7736,
      "ida": 7737,
      "idar": 7738,
      "ifor": 7739,
      "iump": 7740,
      "ibel": 7741,
      "iPh": 7742,
      "ilette": 7743,
      "jj": 7744,
      "jor": 7745,
      "jes": 7746,
      "kg": 7747,
      "kei": 7748,
      "kle": 7749,
      "kil": 7750,
      "kischen": 7751,
      "kungen": 7752,
      "kass": 7753,
      "kmal": 7754,
      "kassen": 7755,
      "keines": 7756,
      "kunde": 7757,
      "kös": 7758,
      "kott": 7759,
      "kopf": 7760,
      "kanzler": 7761,
      "körper": 7762,
      "kette": 7763,
      "kirchen": 7764,
      "leit": 7765,
      "lers": 7766,
      "lohn": 7767,
      "lös": 7768,
      "md": 7769,
      "mie": 7770,
      "mund": 7771,
      "mün": 7772,
      "mtern": 7773,
      "mod": 7774,
      "mauer": 7775,
      "mnot": 7776,
      "mbran": 7777,
      "ness": 7778,
      "niger": 7779,
      "nomin": 7780,
      "nasi": 7781,
      "nennt": 7782,
      "nationalen": 7783,
      "nominiert": 7784,
      "nussen": 7785,
      "nationaler": 7786,
      "nutzte": 7787,
      "oter": 7788,
      "ose": 7789,
      "over": 7790,
      "ole": 7791,
      "out": 7792,
      "osen": 7793,
      "ohen": 7794,
      "osten": 7795,
      "oßen": 7796,
      "ohlen": 7797,
      "osters": 7798,
      "osteuropäischen": 7799,
      "pe": 7800,
      "pit": 7801,
      "pft": 7802,
      "pischen": 7803,
      "pos": 7804,
      "pfen": 7805,
      "patz": 7806,
      "pack": 7807,
      "passen": 7808,
      "pson": 7809,
      "pende": 7810,
      "pekt": 7811,
      "prechen": 7812,
      "pitze": 7813,
      "prax": 7814,
      "praxis": 7815,
      "preise": 7816,
      "pfel": 7817,
      "plätze": 7818,
      "pfäl": 7819,
      "rer": 7820,
      "rin": 7821,
      "rung": 7822,
      "rist": 7823,
      "riel": 7824,
      "rieren": 7825,
      "rass": 7826,
      "russ": 7827,
      "rauchen": 7828,
      "rations": 7829,
      "sin": 7830,
      "sal": 7831,
      "ses": 7832,
      "sse": 7833,
      "sum": 7834,
      "ssen": 7835,
      "sern": 7836,
      "sieren": 7837,
      "sgeb": 7838,
      "sinn": 7839,
      "sive": 7840,
      "singen": 7841,
      "skur": 7842,
      "sub": 7843,
      "sachen": 7844,
      "smann": 7845,
      "sburg": 7846,
      "slowen": 7847,
      "sApp": 7848,
      "sommer": 7849,
      "siven": 7850,
      "smitglied": 7851,
      "szentren": 7852,
      "tK": 7853,
      "tan": 7854,
      "tter": 7855,
      "til": 7856,
      "ther": 7857,
      "tot": 7858,
      "ttern": 7859,
      "tast": 7860,
      "typ": 7861,
      "taucht": 7862,
      "thailänd": 7863,
      "uung": 7864,
      "uel": 7865,
      "ulin": 7866,
      "uhe": 7867,
      "ugt": 7868,
      "usel": 7869,
      "utzt": 7870,
      "ufer": 7871,
      "ußer": 7872,
      "uana": 7873,
      "vas": 7874,
      "vol": 7875,
      "viert": 7876,
      "vierte": 7877,
      "vice": 7878,
      "vsk": 7879,
      "vise": 7880,
      "ww": 7881,
      "wü": 7882,
      "wal": 7883,
      "wom": 7884,
      "wall": 7885,
      "wort": 7886,
      "way": 7887,
      "wett": 7888,
      "wachen": 7889,
      "wisse": 7890,
      "windung": 7891,
      "wöch": 7892,
      "wandelt": 7893,
      "wrin": 7894,
      "ye": 7895,
      "yl": 7896,
      "yers": 7897,
      "za": 7898,
      "zy": 7899,
      "zet": 7900,
      "zigen": 7901,
      "zwe": 7902,
      "zimmer": 7903,
      "zesse": 7904,
      "zone": 7905,
      "Ära": 7906,
      "Ähn": 7907,
      "Äußer": 7908,
      "Öl": 7909,
      "ßig": 7910,
      "án": 7911,
      "äber": 7912,
      "äger": 7913,
      "äche": 7914,
      "äuchten": 7915,
      "ämtern": 7916,
      "ça": 7917,
      "öglich": 7918,
      "öteten": 7919,
      "ögerung": 7920,
      "üb": 7921,
      "üben": 7922,
      "ühm": 7923,
      "ena": 7924,
      "enge": 7925,
      "ente": 7926,
      "enam": 7927,
      "enager": 7928,
      "erer": 7929,
      "erung": 7930,
      "erbe": 7931,
      "ersp": 7932,
      "erweiter": 7933,
      "erma": 7934,
      "erstellt": 7935,
      "erforder": 7936,
      "erbracht": 7937,
      "erenzen": 7938,
      "erbrachte": 7939,
      "erfassen": 7940,
      "erwider": 7941,
      "erscheint": 7942,
      "erholen": 7943,
      "erhoben": 7944,
      "erhielten": 7945,
      "erfasst": 7946,
      "erinnern": 7947,
      "erziehende": 7948,
      "chan": 7949,
      "ching": 7950,
      "chtet": 7951,
      "chnet": 7952,
      "chtes": 7953,
      "chweite": 7954,
      "ina": 7955,
      "ino": 7956,
      "indet": 7957,
      "iness": 7958,
      "inetts": 7959,
      "iell": 7960,
      "ietet": 7961,
      "iefen": 7962,
      "undes": 7963,
      "unbes": 7964,
      "unmöglich": 7965,
      "unbekannt": 7966,
      "unwürdig": 7967,
      "unnöt": 7968,
      "eitel": 7969,
      "eidigen": 7970,
      "eigert": 7971,
      "stor": 7972,
      "stes": 7973,
      "stün": 7974,
      "stigen": 7975,
      "still": 7976,
      "strä": 7977,
      "stage": 7978,
      "stler": 7979,
      "streich": 7980,
      "stap": 7981,
      "stamm": 7982,
      "stranten": 7983,
      "stande": 7984,
      "streifen": 7985,
      "streicht": 7986,
      "anc": 7987,
      "ano": 7988,
      "anen": 7989,
      "ante": 7990,
      "anag": 7991,
      "andes": 7992,
      "anische": 7993,
      "angel": 7994,
      "ankommen": 7995,
      "anken": 7996,
      "anhalten": 7997,
      "anstr": 7998,
      "ankommt": 7999,
      "ansä": 8000,
      "ansprechen": 8001,
      "anziehen": 8002,
      "anlage": 8003,
      "ansieht": 8004,
      "antreten": 8005,
      "anlagen": 8006,
      "anständiger": 8007,
      "einst": 8008,
      "einkommen": 8009,
      "einschä": 8010,
      "einhalten": 8011,
      "einstellen": 8012,
      "eingenommen": 8013,
      "einzug": 8014,
      "einsteigen": 8015,
      "einheiten": 8016,
      "einsetzt": 8017,
      "derte": 8018,
      "derheit": 8019,
      "dergebnis": 8020,
      "gelan": 8021,
      "gefl": 8022,
      "gestand": 8023,
      "geant": 8024,
      "gefahren": 8025,
      "geteilt": 8026,
      "geprü": 8027,
      "gegrün": 8028,
      "geführte": 8029,
      "gewarnt": 8030,
      "gefügt": 8031,
      "gestrich": 8032,
      "gewohnt": 8033,
      "geänderten": 8034,
      "gedrückt": 8035,
      "gesperrt": 8036,
      "getrennt": 8037,
      "tex": 8038,
      "test": 8039,
      "teur": 8040,
      "temp": 8041,
      "telefon": 8042,
      "teure": 8043,
      "teams": 8044,
      "aute": 8045,
      "augen": 8046,
      "auran": 8047,
      "ault": 8048,
      "außen": 8049,
      "auton": 8050,
      "ichter": 8051,
      "ichprobe": 8052,
      "schte": 8053,
      "schwerden": 8054,
      "schungs": 8055,
      "schrau": 8056,
      "schrie": 8057,
      "scherz": 8058,
      "schikan": 8059,
      "schoss": 8060,
      "schickt": 8061,
      "schrän": 8062,
      "schöp": 8063,
      "schinen": 8064,
      "schöne": 8065,
      "decken": 8066,
      "deutet": 8067,
      "dekor": 8068,
      "deutete": 8069,
      "denz": 8070,
      "denschau": 8071,
      "altet": 8072,
      "altern": 8073,
      "alismus": 8074,
      "alitäts": 8075,
      "alschaden": 8076,
      "asil": 8077,
      "assten": 8078,
      "asno": 8079,
      "aspiel": 8080,
      "arab": 8081,
      "arischen": 8082,
      "ario": 8083,
      "arfilm": 8084,
      "itte": 8085,
      "ition": 8086,
      "itiv": 8087,
      "itions": 8088,
      "itäten": 8089,
      "itäre": 8090,
      "gende": 8091,
      "gendet": 8092,
      "tens": 8093,
      "oran": 8094,
      "ores": 8095,
      "orig": 8096,
      "orgenen": 8097,
      "oräre": 8098,
      "orologen": 8099,
      "orient": 8100,
      "orida": 8101,
      "hrends": 8102,
      "zudem": 8103,
      "zustand": 8104,
      "zuerst": 8105,
      "zugleich": 8106,
      "zufinden": 8107,
      "zudenken": 8108,
      "zulegen": 8109,
      "zuständig": 8110,
      "zukunft": 8111,
      "zufuhr": 8112,
      "zugelegt": 8113,
      "zulässt": 8114,
      "zuki": 8115,
      "zutage": 8116,
      "zufällig": 8117,
      "atische": 8118,
      "attet": 8119,
      "aters": 8120,
      "atoren": 8121,
      "atrische": 8122,
      "atlant": 8123,
      "esl": 8124,
      "esung": 8125,
      "esische": 8126,
      "eszeit": 8127,
      "esseln": 8128,
      "llpen": 8129,
      "lljes": 8130,
      "amas": 8131,
      "amüs": 8132,
      "terri": 8133,
      "termin": 8134,
      "terzug": 8135,
      "berei": 8136,
      "berra": 8137,
      "berück": 8138,
      "berry": 8139,
      "berufen": 8140,
      "berühm": 8141,
      "urn": 8142,
      "urt": 8143,
      "uroch": 8144,
      "urigen": 8145,
      "urlau": 8146,
      "agnen": 8147,
      "agog": 8148,
      "bef": 8149,
      "best": 8150,
      "bean": 8151,
      "belt": 8152,
      "befr": 8153,
      "behalten": 8154,
      "begeben": 8155,
      "bestand": 8156,
      "bestehen": 8157,
      "beweg": 8158,
      "bewahr": 8159,
      "befrist": 8160,
      "betreffen": 8161,
      "bedient": 8162,
      "beschreiben": 8163,
      "beweisen": 8164,
      "bewegung": 8165,
      "belegt": 8166,
      "beklei": 8167,
      "befragte": 8168,
      "befürchten": 8169,
      "becca": 8170,
      "sea": 8171,
      "sey": 8172,
      "sech": 8173,
      "sehn": 8174,
      "seums": 8175,
      "achter": 8176,
      "achend": 8177,
      "vern": 8178,
      "verwei": 8179,
      "versen": 8180,
      "verhe": 8181,
      "verbr": 8182,
      "vermehr": 8183,
      "verfü": 8184,
      "verbl": 8185,
      "verbes": 8186,
      "versagt": 8187,
      "verhalten": 8188,
      "verglich": 8189,
      "verfl": 8190,
      "verletzten": 8191,
      "verlang": 8192,
      "verbesser": 8193,
      "verfrü": 8194,
      "verges": 8195,
      "verscher": 8196,
      "verhar": 8197,
      "verletzte": 8198,
      "verließ": 8199,
      "verfass": 8200,
      "verstanden": 8201,
      "verlief": 8202,
      "verlässt": 8203,
      "verstoßen": 8204,
      "verlegt": 8205,
      "versprochen": 8206,
      "verstecken": 8207,
      "verwies": 8208,
      "verschlechter": 8209,
      "verdoppelt": 8210,
      "verläss": 8211,
      "verwirr": 8212,
      "vergift": 8213,
      "verrechnet": 8214,
      "veränderten": 8215,
      "verabschie": 8216,
      "verheiratet": 8217,
      "verdrängt": 8218,
      "verkürzt": 8219,
      "vermittelt": 8220,
      "vereitel": 8221,
      "verstor": 8222,
      "roe": 8223,
      "rol": 8224,
      "rolle": 8225,
      "route": 8226,
      "roenter": 8227,
      "rollt": 8228,
      "aufen": 8229,
      "auffen": 8230,
      "aufhör": 8231,
      "aufstellen": 8232,
      "aufgest": 8233,
      "aufstellung": 8234,
      "aufbringen": 8235,
      "aufgegeben": 8236,
      "aufgebaut": 8237,
      "aufsteigenden": 8238,
      "ürer": 8239,
      "irgendet": 8240,
      "ichtungen": 8241,
      "igtes": 8242,
      "igail": 8243,
      "igitte": 8244,
      "istin": 8245,
      "istern": 8246,
      "istall": 8247,
      "istischer": 8248,
      "istift": 8249,
      "lep": 8250,
      "leer": 8251,
      "lehr": 8252,
      "lehn": 8253,
      "ledig": 8254,
      "legung": 8255,
      "lecker": 8256,
      "leppt": 8257,
      "ima": 8258,
      "imp": 8259,
      "iman": 8260,
      "impul": 8261,
      "lichten": 8262,
      "benutzte": 8263,
      "ismen": 8264,
      "eitgrößten": 8265,
      "mitzunehmen": 8266,
      "mitteilen": 8267,
      "mitteilten": 8268,
      "uman": 8269,
      "umgeben": 8270,
      "umbau": 8271,
      "umsatz": 8272,
      "umwelt": 8273,
      "umnisse": 8274,
      "ents": 8275,
      "ental": 8276,
      "entlang": 8277,
      "entstehen": 8278,
      "enthält": 8279,
      "enthü": 8280,
      "entfällt": 8281,
      "nehm": 8282,
      "ischten": 8283,
      "reger": 8284,
      "repar": 8285,
      "regress": 8286,
      "ckt": 8287,
      "ckten": 8288,
      "ckenden": 8289,
      "ckpit": 8290,
      "tzentr": 8291,
      "oment": 8292,
      "omberg": 8293,
      "design": 8294,
      "designer": 8295,
      "auso": 8296,
      "aussagte": 8297,
      "aussehen": 8298,
      "ausfall": 8299,
      "ausgestellt": 8300,
      "ausgegeben": 8301,
      "ausschließlich": 8302,
      "ausreichen": 8303,
      "ausbruch": 8304,
      "ausschließen": 8305,
      "ausschuss": 8306,
      "ausgelöst": 8307,
      "ausländischen": 8308,
      "ausgebildet": 8309,
      "auswirkt": 8310,
      "ausländische": 8311,
      "demnach": 8312,
      "beides": 8313,
      "beispiel": 8314,
      "beigetragen": 8315,
      "stete": 8316,
      "steam": 8317,
      "stemen": 8318,
      "stehe": 8319,
      "steuern": 8320,
      "andu": 8321,
      "elten": 8322,
      "eltern": 8323,
      "raben": 8324,
      "rainer": 8325,
      "Sti": 8326,
      "Stein": 8327,
      "Stau": 8328,
      "Strei": 8329,
      "Stall": 8330,
      "Streich": 8331,
      "Statt": 8332,
      "Steigen": 8333,
      "Stamm": 8334,
      "Stationen": 8335,
      "Stimme": 8336,
      "Stimmen": 8337,
      "Stutt": 8338,
      "Stichprobe": 8339,
      "Stauffen": 8340,
      "ftigen": 8341,
      "ftürer": 8342,
      "werbe": 8343,
      "werda": 8344,
      "usst": 8345,
      "usiv": 8346,
      "utlicht": 8347,
      "weich": 8348,
      "weiler": 8349,
      "sprä": 8350,
      "spitzen": 8351,
      "spitze": 8352,
      "sprecher": 8353,
      "speziell": 8354,
      "senken": 8355,
      "iler": 8356,
      "Diesel": 8357,
      "warf": 8358,
      "warfen": 8359,
      "ffi": 8360,
      "hagen": 8361,
      "have": 8362,
      "annt": 8363,
      "annon": 8364,
      "sour": 8365,
      "somit": 8366,
      "soci": 8367,
      "siegel": 8368,
      "siebten": 8369,
      "siedlung": 8370,
      "reif": 8371,
      "reifer": 8372,
      "vorhan": 8373,
      "vornehmen": 8374,
      "vorstand": 8375,
      "vorgestellt": 8376,
      "vorgesehen": 8377,
      "vorsieht": 8378,
      "vorzustellen": 8379,
      "vorgeworfen": 8380,
      "hnischen": 8381,
      "hnsucht": 8382,
      "überr": 8383,
      "überre": 8384,
      "überaus": 8385,
      "überlassen": 8386,
      "überwach": 8387,
      "überprü": 8388,
      "übernommen": 8389,
      "Verd": 8390,
      "Vereine": 8391,
      "Verrat": 8392,
      "Verschie": 8393,
      "Versä": 8394,
      "Vermarkt": 8395,
      "Versor": 8396,
      "Vergewalt": 8397,
      "Verwirr": 8398,
      "Verwendung": 8399,
      "Vermis": 8400,
      "Verhagen": 8401,
      "iens": 8402,
      "ienische": 8403,
      "Anmer": 8404,
      "Anlie": 8405,
      "Anton": 8406,
      "Anforder": 8407,
      "Anerk": 8408,
      "Anth": 8409,
      "Anzeigen": 8410,
      "Anlage": 8411,
      "Anfragen": 8412,
      "Anleger": 8413,
      "Angst": 8414,
      "Ankömm": 8415,
      "Anklage": 8416,
      "Ankündigung": 8417,
      "Anhänger": 8418,
      "chtigkeit": 8419,
      "Proje": 8420,
      "Provin": 8421,
      "Schn": 8422,
      "Schau": 8423,
      "Schwar": 8424,
      "Schri": 8425,
      "Schikan": 8426,
      "Schlangen": 8427,
      "Schnä": 8428,
      "Schäden": 8429,
      "Schwarm": 8430,
      "Schüsse": 8431,
      "Schreck": 8432,
      "Schmerzen": 8433,
      "Schuhe": 8434,
      "ängte": 8435,
      "änkischen": 8436,
      "etliche": 8437,
      "ethnischen": 8438,
      "Inhaber": 8439,
      "Intim": 8440,
      "Infra": 8441,
      "Unmittel": 8442,
      "Unentschieden": 8443,
      "linien": 8444,
      "heftig": 8445,
      "hebung": 8446,
      "ernen": 8447,
      "nacht": 8448,
      "nachzudenken": 8449,
      "Erfol": 8450,
      "Erwachsen": 8451,
      "heng": 8452,
      "abgibt": 8453,
      "absichtlich": 8454,
      "ablen": 8455,
      "allte": 8456,
      "allgemein": 8457,
      "allmä": 8458,
      "Beste": 8459,
      "Bevor": 8460,
      "Bewe": 8461,
      "Beob": 8462,
      "Bestand": 8463,
      "Bedenken": 8464,
      "Begriff": 8465,
      "Bezieh": 8466,
      "Bearbeit": 8467,
      "Beweisen": 8468,
      "Bedarf": 8469,
      "Bevölkerung": 8470,
      "Bestes": 8471,
      "Beschwerden": 8472,
      "Behrends": 8473,
      "Jahrhunder": 8474,
      "Jahrhundert": 8475,
      "gerät": 8476,
      "gerichte": 8477,
      "gerufen": 8478,
      "gerreise": 8479,
      "gereist": 8480,
      "geräte": 8481,
      "Einen": 8482,
      "Eingang": 8483,
      "Einstieg": 8484,
      "Einkäu": 8485,
      "Einheiten": 8486,
      "Einspruch": 8487,
      "Einführung": 8488,
      "Einklang": 8489,
      "Eindho": 8490,
      "Gefe": 8491,
      "Gefr": 8492,
      "Gefahr": 8493,
      "Geoff": 8494,
      "Gewahr": 8495,
      "Geplant": 8496,
      "Gebur": 8497,
      "Gedan": 8498,
      "Geograph": 8499,
      "Gewerkschaft": 8500,
      "Gewerbe": 8501,
      "Spur": 8502,
      "Spion": 8503,
      "Sprit": 8504,
      "Spende": 8505,
      "Später": 8506,
      "Sprech": 8507,
      "Spons": 8508,
      "Spieß": 8509,
      "iko": 8510,
      "schlüs": 8511,
      "Real": 8512,
      "Reste": 8513,
      "Reha": 8514,
      "Rekl": 8515,
      "Rechen": 8516,
      "Reaktionen": 8517,
      "Rebecca": 8518,
      "ennord": 8519,
      "herüber": 8520,
      "herab": 8521,
      "hergestellt": 8522,
      "herzustellen": 8523,
      "dahin": 8524,
      "dadurch": 8525,
      "Auge": 8526,
      "Audre": 8527,
      "Austritt": 8528,
      "klassen": 8529,
      "kluge": 8530,
      "klusiv": 8531,
      "Derzeit": 8532,
      "Derby": 8533,
      "Grand": 8534,
      "Grunde": 8535,
      "Grusel": 8536,
      "ihres": 8537,
      "glän": 8538,
      "glos": 8539,
      "komfort": 8540,
      "indigkeit": 8541,
      "Siege": 8542,
      "ünge": 8543,
      "ündete": 8544,
      "ündungen": 8545,
      "Mittag": 8546,
      "Mithilfe": 8547,
      "igens": 8548,
      "jetz": 8549,
      "jeman": 8550,
      "jekten": 8551,
      "jederzeit": 8552,
      "illo": 8553,
      "unterkommen": 8554,
      "unterscheiden": 8555,
      "unterkünfte": 8556,
      "unterstrich": 8557,
      "unterbrochen": 8558,
      "otin": 8559,
      "otie": 8560,
      "otischen": 8561,
      "otionen": 8562,
      "otherapie": 8563,
      "otherape": 8564,
      "othet": 8565,
      "zeugen": 8566,
      "bram": 8567,
      "breit": 8568,
      "bruar": 8569,
      "bräuchten": 8570,
      "osla": 8571,
      "Flair": 8572,
      "Fläche": 8573,
      "Flanag": 8574,
      "Flaute": 8575,
      "Florida": 8576,
      "Flutlicht": 8577,
      "half": 8578,
      "wood": 8579,
      "gramme": 8580,
      "gruppen": 8581,
      "lanta": 8582,
      "höchst": 8583,
      "rühr": 8584,
      "rüger": 8585,
      "wehr": 8586,
      "westlich": 8587,
      "opie": 8588,
      "opul": 8589,
      "optim": 8590,
      "festen": 8591,
      "fester": 8592,
      "uellen": 8593,
      "mehrheit": 8594,
      "ivität": 8595,
      "llektiv": 8596,
      "randeten": 8597,
      "schenkel": 8598,
      "artig": 8599,
      "artikel": 8600,
      "hinein": 8601,
      "hinunter": 8602,
      "hineinzu": 8603,
      "hineinge": 8604,
      "hingewiesen": 8605,
      "hindert": 8606,
      "objekt": 8607,
      "obdach": 8608,
      "rät": 8609,
      "rägen": 8610,
      "rägt": 8611,
      "rätin": 8612,
      "durchaus": 8613,
      "durchlaufen": 8614,
      "gelte": 8615,
      "geladen": 8616,
      "gelesen": 8617,
      "geltenden": 8618,
      "gelobte": 8619,
      "gelenk": 8620,
      "geliefert": 8621,
      "fügten": 8622,
      "fühle": 8623,
      "ährungs": 8624,
      "teta": 8625,
      "schaftliche": 8626,
      "Deal": 8627,
      "Defen": 8628,
      "Decke": 8629,
      "Devise": 8630,
      "Vorder": 8631,
      "Vorher": 8632,
      "Vorfahren": 8633,
      "Vorbereit": 8634,
      "Vorwurf": 8635,
      "Vorreiter": 8636,
      "Vorsaison": 8637,
      "bläst": 8638,
      "Enkel": 8639,
      "Enfant": 8640,
      "2025": 8641,
      "lton": 8642,
      "ungsweise": 8643,
      "ungssystem": 8644,
      "ungsgericht": 8645,
      "uchhausen": 8646,
      "Lektion": 8647,
      "Lewand": 8648,
      "agentur": 8649,
      "raucht": 8650,
      "gewür": 8651,
      "gewiss": 8652,
      "gebür": 8653,
      "geblich": 8654,
      "gebrem": 8655,
      "Auszahl": 8656,
      "Ausmus": 8657,
      "Ausbil": 8658,
      "Ausgaben": 8659,
      "Ausnahmen": 8660,
      "Auskunft": 8661,
      "Ausläu": 8662,
      "Ausländer": 8663,
      "Ausbildung": 8664,
      "Aushilfen": 8665,
      "Auswärts": 8666,
      "Teuf": 8667,
      "Teenager": 8668,
      "riese": 8669,
      "riegeln": 8670,
      "Nachteil": 8671,
      "Nachweise": 8672,
      "Nachfol": 8673,
      "Nachhalt": 8674,
      "Nachweis": 8675,
      "Nachmittag": 8676,
      "Nachtrennen": 8677,
      "zenierung": 8678,
      "Meng": 8679,
      "ulation": 8680,
      "ulären": 8681,
      "erson": 8682,
      "ersatz": 8683,
      "daraus": 8684,
      "darstellen": 8685,
      "darität": 8686,
      "darstellt": 8687,
      "ppen": 8688,
      "ppchen": 8689,
      "keeper": 8690,
      "kannte": 8691,
      "kannten": 8692,
      "teilnehmer": 8693,
      "Arten": 8694,
      "Arteta": 8695,
      "chey": 8696,
      "chefin": 8697,
      "selben": 8698,
      "Umzug": 8699,
      "Umfeld": 8700,
      "ica": 8701,
      "zweif": 8702,
      "zweiter": 8703,
      "zweites": 8704,
      "liege": 8705,
      "liebe": 8706,
      "liefert": 8707,
      "rugen": 8708,
      "rufen": 8709,
      "sammelt": 8710,
      "stellten": 8711,
      "stags": 8712,
      "stagnieren": 8713,
      "digt": 8714,
      "digung": 8715,
      "weitergehen": 8716,
      "weitergeht": 8717,
      "weiterreisen": 8718,
      "schätzen": 8719,
      "assismus": 8720,
      "Spielp": 8721,
      "Spielberg": 8722,
      "Spielzeiten": 8723,
      "forschung": 8724,
      "manche": 8725,
      "Menschenwürde": 8726,
      "Menschenmenge": 8727,
      "Alten": 8728,
      "Alfre": 8729,
      "Trier": 8730,
      "Triump": 8731,
      "ages": 8732,
      "leider": 8733,
      "leitete": 8734,
      "zumindest": 8735,
      "wende": 8736,
      "Neust": 8737,
      "Neuronen": 8738,
      "Negativ": 8739,
      "Neuroch": 8740,
      "besuch": 8741,
      "besucht": 8742,
      "besetzt": 8743,
      "besprechen": 8744,
      "gia": 8745,
      "gipfel": 8746,
      "nah": 8747,
      "nahen": 8748,
      "konstru": 8749,
      "konvent": 8750,
      "konsum": 8751,
      "ussia": 8752,
      "Deutscher": 8753,
      "hoden": 8754,
      "hoff": 8755,
      "hoher": 8756,
      "hoffen": 8757,
      "rial": 8758,
      "Mary": 8759,
      "Mario": 8760,
      "Marih": 8761,
      "Bereits": 8762,
      "Beruf": 8763,
      "Berchtes": 8764,
      "Zugest": 8765,
      "Zuwander": 8766,
      "Zuhause": 8767,
      "lätzen": 8768,
      "lächer": 8769,
      "führe": 8770,
      "führende": 8771,
      "frische": 8772,
      "fränkischen": 8773,
      "nisvollen": 8774,
      "detaill": 8775,
      "Aufzeich": 8776,
      "Aufstieg": 8777,
      "Aufgrund": 8778,
      "Aufklärung": 8779,
      "Aufruf": 8780,
      "Aufschluss": 8781,
      "Aufräumen": 8782,
      "Aufmerksam": 8783,
      "zieller": 8784,
      "altungen": 8785,
      "Monats": 8786,
      "Monmo": 8787,
      "fine": 8788,
      "finder": 8789,
      "rückte": 8790,
      "hört": 8791,
      "Sektoren": 8792,
      "Secur": 8793,
      "Sehnsucht": 8794,
      "ohnmächtig": 8795,
      "Zeitungen": 8796,
      "Zeitplan": 8797,
      "Image": 8798,
      "diatrische": 8799,
      "perle": 8800,
      "ated": 8801,
      "atelang": 8802,
      "hmandu": 8803,
      "umpf": 8804,
      "2018": 8805,
      "2019": 8806,
      "Steve": 8807,
      "Stefan": 8808,
      "aktieren": 8809,
      "aktual": 8810,
      "iac": 8811,
      "deutigkeiten": 8812,
      "flacher": 8813,
      "flüss": 8814,
      "dukt": 8815,
      "syrischen": 8816,
      "arbeitern": 8817,
      "neuer": 8818,
      "neues": 8819,
      "Milliardär": 8820,
      "Root": 8821,
      "Road": 8822,
      "Route": 8823,
      "Rook": 8824,
      "Routen": 8825,
      "Roone": 8826,
      "Roosters": 8827,
      "sonde": 8828,
      "ören": 8829,
      "örkös": 8830,
      "barten": 8831,
      "immerhin": 8832,
      "Konzentr": 8833,
      "Konservative": 8834,
      "promin": 8835,
      "produzieren": 8836,
      "profess": 8837,
      "okals": 8838,
      "tragenen": 8839,
      "training": 8840,
      "Stud": 8841,
      "Stufe": 8842,
      "Studium": 8843,
      "Studio": 8844,
      "Mancher": 8845,
      "Plou": 8846,
      "markan": 8847,
      "innov": 8848,
      "innip": 8849,
      "Polizeibeam": 8850,
      "gsflüchtlinge": 8851,
      "hauser": 8852,
      "hausens": 8853,
      "haussiedlung": 8854,
      "mache": 8855,
      "machung": 8856,
      "Mac": 8857,
      "Mahel": 8858,
      "Quersp": 8859,
      "Qualitäts": 8860,
      "Quinnip": 8861,
      "Weed": 8862,
      "Westeuropa": 8863,
      "rats": 8864,
      "ratching": 8865,
      "sichtige": 8866,
      "Mannhei": 8867,
      "Mannheim": 8868,
      "Jahrestag": 8869,
      "Bunde": 8870,
      "Lammer": 8871,
      "Meg": 8872,
      "Membran": 8873,
      "ftes": 8874,
      "angezeigt": 8875,
      "angegriffen": 8876,
      "langweil": 8877,
      "garant": 8878,
      "zweitgrößten": 8879,
      "ktioniert": 8880,
      "Tool": 8881,
      "Toys": 8882,
      "Toilette": 8883,
      "aps": 8884,
      "bauten": 8885,
      "starten": 8886,
      "starker": 8887,
      "Bundesamt": 8888,
      "Bundesländer": 8889,
      "Bundesverfass": 8890,
      "Bundesumwelt": 8891,
      "willkommen": 8892,
      "Dons": 8893,
      "Soden": 8894,
      "Sofa": 8895,
      "damal": 8896,
      "gabes": 8897,
      "heißen": 8898,
      "scheiterte": 8899,
      "eldöner": 8900,
      "springen": 8901,
      "sprachen": 8902,
      "häusern": 8903,
      "trins": 8904,
      "zurückkommen": 8905,
      "zurückhalten": 8906,
      "zurückkehren": 8907,
      "Absicht": 8908,
      "Absol": 8909,
      "Abschied": 8910,
      "Ableger": 8911,
      "Abigail": 8912,
      "Ihrer": 8913,
      "gutmachung": 8914,
      "vielmehr": 8915,
      "ankam": 8916,
      "geschü": 8917,
      "geschoss": 8918,
      "Regie": 8919,
      "Register": 8920,
      "Regime": 8921,
      "Mittwochnachmittag": 8922,
      "Moschee": 8923,
      "Modenschau": 8924,
      "Wohnort": 8925,
      "Wohneinheiten": 8926,
      "maß": 8927,
      "maxim": 8928,
      "mazedon": 8929,
      "maschinen": 8930,
      "ugnisse": 8931,
      "ugosla": 8932,
      "Wählbarkeit": 8933,
      "prägt": 8934,
      "wichtige": 8935,
      "wichtiges": 8936,
      "Parade": 8937,
      "Parodie": 8938,
      "Parcours": 8939,
      "akust": 8940,
      "akadem": 8941,
      "wälte": 8942,
      "ührt": 8943,
      "angaben": 8944,
      "Strafe": 8945,
      "Einem": 8946,
      "Sylt": 8947,
      "Sydney": 8948,
      "begraben": 8949,
      "halbiert": 8950,
      "öffentliche": 8951,
      "BBC4": 8952,
      "Leitende": 8953,
      "Weimar": 8954,
      "Weiters": 8955,
      "mitteln": 8956,
      "Entstanden": 8957,
      "Beide": 8958,
      "Beispiele": 8959,
      "Großvater": 8960,
      "Großwall": 8961,
      "Großeltern": 8962,
      "erstmal": 8963,
      "erstoff": 8964,
      "erstaun": 8965,
      "verliert": 8966,
      "verlänger": 8967,
      "302": 8968,
      "Minderheit": 8969,
      "Malerei": 8970,
      "trem": 8971,
      "treffe": 8972,
      "Übergang": 8973,
      "Überrasch": 8974,
      "Übergangs": 8975,
      "Überzeug": 8976,
      "Überwindung": 8977,
      "Grenzgebieten": 8978,
      "erklären": 8979,
      "gestoßen": 8980,
      "gesteigert": 8981,
      "Klass": 8982,
      "Klub": 8983,
      "Klima": 8984,
      "Karies": 8985,
      "Kontin": 8986,
      "Kontakte": 8987,
      "kurzer": 8988,
      "saßen": 8989,
      "Teamko": 8990,
      "Teamkollegen": 8991,
      "selbstverständlich": 8992,
      "Fehl": 8993,
      "Feuer": 8994,
      "Februar": 8995,
      "owski": 8996,
      "zeichnen": 8997,
      "möglichst": 8998,
      "punkten": 8999,
      "wohnten": 9000,
      "wohnern": 9001,
      "festes": 9002,
      "feststellen": 9003,
      "festgestellt": 9004,
      "festgenommen": 9005,
      "festgelegt": 9006,
      "Aktuell": 9007,
      "Aktual": 9008,
      "Landrätin": 9009,
      "Orten": 9010,
      "Orban": 9011,
      "Ordnung": 9012,
      "Präsent": 9013,
      "Prävention": 9014,
      "Save": 9015,
      "kovsk": 9016,
      "glaubte": 9017,
      "Europas": 9018,
      "Handy": 9019,
      "Handwerk": 9020,
      "Handdesinfektionsmittel": 9021,
      "handle": 9022,
      "Forschung": 9023,
      "Forschungs": 9024,
      "Jeden": 9025,
      "Jedes": 9026,
      "Jeff": 9027,
      "Kollege": 9028,
      "Koordinator": 9029,
      "Service": 9030,
      "Sergeant": 9031,
      "auerten": 9032,
      "schießen": 9033,
      "Produzent": 9034,
      "daraufhin": 9035,
      "Cook": 9036,
      "Coomer": 9037,
      "Cocu": 9038,
      "Cockpit": 9039,
      "Cobram": 9040,
      "Heute": 9041,
      "Heftige": 9042,
      "Ludw": 9043,
      "Obdach": 9044,
      "publik": 9045,
      "tswert": 9046,
      "gefan": 9047,
      "gefasst": 9048,
      "scheinheil": 9049,
      "verbot": 9050,
      "verboten": 9051,
      "verbrechen": 9052,
      "verbindet": 9053,
      "verbandes": 9054,
      "wirkliche": 9055,
      "änderungen": 9056,
      "Hausarzt": 9057,
      "Notfall": 9058,
      "Notwend": 9059,
      "holz": 9060,
      "holischen": 9061,
      "kerl": 9062,
      "antie": 9063,
      "Stadtstaat": 9064,
      "Vereins": 9065,
      "Schlamm": 9066,
      "180": 9067,
      "184": 9068,
      "1860": 9069,
      "Betrag": 9070,
      "Damals": 9071,
      "Damien": 9072,
      "Kombi": 9073,
      "Montreal": 9074,
      "Weltwirtschaft": 9075,
      "Weltkrieg": 9076,
      "ballspitze": 9077,
      "richtungen": 9078,
      "weitgehend": 9079,
      "inell": 9080,
      "strate": 9081,
      "strafen": 9082,
      "straining": 9083,
      "schwere": 9084,
      "späteren": 9085,
      "Schulz": 9086,
      "Schulen": 9087,
      "Schulverwaltung": 9088,
      "besseren": 9089,
      "122": 9090,
      "125": 9091,
      "12500": 9092,
      "Fahrt": 9093,
      "Media": 9094,
      "Werft": 9095,
      "Werke": 9096,
      "Zeuge": 9097,
      "Zebro": 9098,
      "byen": 9099,
      "iode": 9100,
      "offenbart": 9101,
      "ptete": 9102,
      "sätzen": 9103,
      "erell": 9104,
      "erwarte": 9105,
      "erwartete": 9106,
      "einzigen": 9107,
      "schwach": 9108,
      "schwanger": 9109,
      "schwört": 9110,
      "vertrieben": 9111,
      "verteidigen": 9112,
      "Interess": 9113,
      "Interaktion": 9114,
      "Interpret": 9115,
      "Marktteilnehmer": 9116,
      "Bayl": 9117,
      "Reichweite": 9118,
      "cedes": 9119,
      "hierbei": 9120,
      "ubschrau": 9121,
      "gesunde": 9122,
      "gesucht": 9123,
      "elnd": 9124,
      "Geschäftstät": 9125,
      "170": 9126,
      "175": 9127,
      "Asylan": 9128,
      "Boy": 9129,
      "Brut": 9130,
      "Brauchen": 9131,
      "Bright": 9132,
      "Brigitte": 9133,
      "Bruchhausen": 9134,
      "Traisk": 9135,
      "Training": 9136,
      "Sportfunktion": 9137,
      "Sporthalle": 9138,
      "Krankenhäusern": 9139,
      "Besetzung": 9140,
      "Carly": 9141,
      "Caritas": 9142,
      "Teilen": 9143,
      "drungen": 9144,
      "dringen": 9145,
      "dramatisch": 9146,
      "interview": 9147,
      "interpret": 9148,
      "stärken": 9149,
      "Ergebnissen": 9150,
      "höheres": 9151,
      "Flüchtlingsfrage": 9152,
      "Flüchtlingsstrom": 9153,
      "Umfragewerte": 9154,
      "Saisonarbeiter": 9155,
      "Saisonarbeitern": 9156,
      "Deshalb": 9157,
      "dorthin": 9158,
      "fäll": 9159,
      "freie": 9160,
      "freut": 9161,
      "freuen": 9162,
      "personen": 9163,
      "stattfindet": 9164,
      "stattdessen": 9165,
      "Jahresumsatz": 9166,
      "unterstützte": 9167,
      "hinterließ": 9168,
      "Finanzmarkt": 9169,
      "Finanzkrise": 9170,
      "Asylverfahren": 9171,
      "Asylsuchende": 9172,
      "Gerichten": 9173,
      "Geräten": 9174,
      "Geräte": 9175,
      "Methoden": 9176,
      "Pestel": 9177,
      "Partie": 9178,
      "Urlau": 9179,
      "Urteile": 9180,
      "jähriges": 9181,
      "konto": 9182,
      "kontaktieren": 9183,
      "erkunden": 9184,
      "erkennen": 9185,
      "erlauben": 9186,
      "erlernen": 9187,
      "erschoss": 9188,
      "angerei": 9189,
      "angerufen": 9190,
      "schlechte": 9191,
      "rechtliche": 9192,
      "rechtfert": 9193,
      "Grundsatz": 9194,
      "Grundstein": 9195,
      "Grundstücks": 9196,
      "Arbeitskosten": 9197,
      "Arbeitslosen": 9198,
      "Arbeitsverbot": 9199,
      "Drama": 9200,
      "Fracht": 9201,
      "Genauer": 9202,
      "Genesung": 9203,
      "Pfosten": 9204,
      "Trevor": 9205,
      "Treppe": 9206,
      "suche": 9207,
      "suchten": 9208,
      "vollzugs": 9209,
      "schnelle": 9210,
      "ragende": 9211,
      "Republikanischen": 9212,
      "Republikanische": 9213,
      "Neuen": 9214,
      "Neuer": 9215,
      "Quartier": 9216,
      "Quartieren": 9217,
      "Quartiere": 9218,
      "Fußballer": 9219,
      "Bayerns": 9220,
      "Höhen": 9221,
      "McGu": 9222,
      "Tagung": 9223,
      "Viktor": 9224,
      "dorkovsk": 9225,
      "kämen": 9226,
      "monat": 9227,
      "monet": 9228,
      "monds": 9229,
      "monatelang": 9230,
      "mussten": 9231,
      "oftmals": 9232,
      "gegebenen": 9233,
      "schlagenen": 9234,
      "schließt": 9235,
      "Mitarbeiterzahl": 9236,
[...]
